{
  "version": "1.0",
  "truncation": null,
  "padding": null,
  "added_tokens": [
    {
      "id": 0,
      "content": "[PAD]",
      "single_word": false,
      "lstrip": false,
      "rstrip": false,
      "normalized": false,
      "special": true
    },
    {
      "id": 100,
      "content": "[UNK]",
      "single_word": false,
      "lstrip": false,
      "rstrip": false,
      "normalized": false,
      "special": true
    },
    {
      "id": 101,
      "content": "[CLS]",
      "single_word": false,
      "lstrip": false,
      "rstrip": false,
      "normalized": false,
      "special": true
    },
    {
      "id": 102,
      "content": "[SEP]",
      "single_word": false,
      "lstrip": false,
      "rstrip": false,
      "normalized": false,
      "special": true
    },
    {
      "id": 103,
      "content": "[MASK]",
      "single_word": false,
      "lstrip": false,
      "rstrip": false,
      "normalized": false,
      "special": true
    }
  ],
  "normalizer": {
    "type": "BertNormalizer",
    "clean_text": true,
    "handle_chinese_chars": false,
    "strip_accents": null,
    "lowercase": true
  },
  "pre_tokenizer": {
    "type": "BertPreTokenizer"
  },
  "post_processor": {
    "type": "TemplateProcessing",
    "single": [
      {
        "SpecialToken": {
          "id": "[CLS]",
          "type_id": 0
        }
      },
      {
        "Sequence": {
          "id": "A",
          "type_id": 0
        }
      },
      {
        "SpecialToken": {
          "id": "[SEP]",
          "type_id": 0
        }
      }
    ],
    "pair": [
      {
        "SpecialToken": {
          "id": "[CLS]",
          "type_id": 0
        }
      },
      {
        "Sequence": {
          "id": "A",
          "type_id": 0
        }
      },
      {
        "SpecialToken": {
          "id": "[SEP]",
          "type_id": 0
        }
      },
      {
        "Sequence": {
          "id": "B",
          "type_id": 1
        }
      },
      {
        "SpecialToken": {
          "id": "[SEP]",
          "type_id": 1
        }
      }
    ],
    "special_tokens": {
      "[CLS]": {
        "id": "[CLS]",
        "ids": [
          101
        ],
        "tokens": [
          "[CLS]"
        ]
      },
      "[SEP]": {
        "id": "[SEP]",
        "ids": [
          102
        ],
        "tokens": [
          "[SEP]"
        ]
      }
    }
  },
  "decoder": {
    "type": "WordPiece",
    "prefix": "##",
    "cleanup": true
  },
  "model": {
    "type": "WordPiece",
    "unk_token": "[UNK]",
    "continuing_subword_prefix": "##",
    "max_input_chars_per_word": 100,
    "vocab": {
      "[PAD]": 0,
      "[unused1]": 1,
      "[unused2]": 2,
      "[unused3]": 3,
      "[unused4]": 4,
      "[unused5]": 5,
      "[unused6]": 6,
      "[unused7]": 7,
      "[unused8]": 8,
      "[unused9]": 9,
      "[unused10]": 10,
      "[unused11]": 11,
      "[unused12]": 12,
      "[unused13]": 13,
      "[unused14]": 14,
      "[unused15]": 15,
      "[unused16]": 16,
      "[unused17]": 17,
      "[unused18]": 18,
      "[unused19]": 19,
      "[unused20]": 20,
      "[unused21]": 21,
      "[unused22]": 22,
      "[unused23]": 23,
      "[unused24]": 24,
      "[unused25]": 25,
      "[unused26]": 26,
      "[unused27]": 27,
      "[unused28]": 28,
      "[unused29]": 29,
      "[unused30]": 30,
      "[unused31]": 31,
      "[unused32]": 32,
      "[unused33]": 33,
      "[unused34]": 34,
      "[unused35]": 35,
      "[unused36]": 36,
      "[unused37]": 37,
      "[unused38]": 38,
      "[unused39]": 39,
      "[unused40]": 40,
      "[unused41]": 41,
      "[unused42]": 42,
      "[unused43]": 43,
      "[unused44]": 44,
      "[unused45]": 45,
      "[unused46]": 46,
      "[unused47]": 47,
      "[unused48]": 48,
      "[unused49]": 49,
      "[unused50]": 50,
      "[unused51]": 51,
      "[unused52]": 52,
      "[unused53]": 53,
      "[unused54]": 54,
      "[unused55]": 55,
      "[unused56]": 56,
      "[unused57]": 57,
      "[unused58]": 58,
      "[unused59]": 59,
      "[unused60]": 60,
      "[unused61]": 61,
      "[unused62]": 62,
      "[unused63]": 63,
      "[unused64]": 64,
      "[unused65]": 65,
      "[unused66]": 66,
      "[unused67]": 67,
      "[unused68]": 68,
      "[unused69]": 69,
      "[unused70]": 70,
      "[unused71]": 71,
      "[unused72]": 72,
      "[unused73]": 73,
      "[unused74]": 74,
      "[unused75]": 75,
      "[unused76]": 76,
      "[unused77]": 77,
      "[unused78]": 78,
      "[unused79]": 79,
      "[unused80]": 80,
      "[unused81]": 81,
      "[unused82]": 82,
      "[unused83]": 83,
      "[unused84]": 84,
      "[unused85]": 85,
      "[unused86]": 86,
      "[unused87]": 87,
      "[unused88]": 88,
      "[unused89]": 89,
      "[unused90]": 90,
      "[unused91]": 91,
      "[unused92]": 92,
      "[unused93]": 93,
      "[unused94]": 94,
      "[unused95]": 95,
      "[unused96]": 96,
      "[unused97]": 97,
      "[unused98]": 98,
      "[unused99]": 99,
      "[UNK]": 100,
      "[CLS]": 101,
      "[SEP]": 102,
      "[MASK]": 103,
      "<S>": 104,
      "<T>": 105,
      "!": 106,
      "\"": 107,
      "#": 108,
      "$": 109,
      "%": 110,
      "&": 111,
      "'": 112,
      "(": 113,
      ")": 114,
      "*": 115,
      "+": 116,
      ",": 117,
      "-": 118,
      ".": 119,
      "/": 120,
      "0": 121,
      "1": 122,
      "2": 123,
      "3": 124,
      "4": 125,
      "5": 126,
      "6": 127,
      "7": 128,
      "8": 129,
      "9": 130,
      ":": 131,
      ";": 132,
      "<": 133,
      "=": 134,
      ">": 135,
      "?": 136,
      "@": 137,
      "[": 138,
      "\\": 139,
      "]": 140,
      "^": 141,
      "a": 142,
      "b": 143,
      "c": 144,
      "d": 145,
      "e": 146,
      "f": 147,
      "g": 148,
      "h": 149,
      "i": 150,
      "j": 151,
      "k": 152,
      "l": 153,
      "m": 154,
      "n": 155,
      "o": 156,
      "p": 157,
      "q": 158,
      "r": 159,
      "s": 160,
      "t": 161,
      "u": 162,
      "v": 163,
      "w": 164,
      "x": 165,
      "y": 166,
      "z": 167,
      "{": 168,
      "|": 169,
      "}": 170,
      "–": 171,
      "—": 172,
      "‘": 173,
      "’": 174,
      "“": 175,
      "”": 176,
      "…": 177,
      "、": 178,
      "。": 179,
      "〈": 180,
      "〉": 181,
      "《": 182,
      "》": 183,
      "「": 184,
      "」": 185,
      "『": 186,
      "』": 187,
      "【": 188,
      "】": 189,
      "〔": 190,
      "〕": 191,
      "一": 192,
      "丁": 193,
      "七": 194,
      "万": 195,
      "丈": 196,
      "三": 197,
      "上": 198,
      "下": 199,
      "不": 200,
      "与": 201,
      "丐": 202,
      "丑": 203,
      "专": 204,
      "且": 205,
      "丕": 206,
      "世": 207,
      "丘": 208,
      "丙": 209,
      "业": 210,
      "丛": 211,
      "东": 212,
      "丝": 213,
      "丞": 214,
      "両": 215,
      "丢": 216,
      "两": 217,
      "严": 218,
      "丧": 219,
      "丨": 220,
      "个": 221,
      "丫": 222,
      "中": 223,
      "丰": 224,
      "串": 225,
      "临": 226,
      "丶": 227,
      "丸": 228,
      "丹": 229,
      "为": 230,
      "主": 231,
      "丼": 232,
      "丽": 233,
      "举": 234,
      "丿": 235,
      "乂": 236,
      "乃": 237,
      "久": 238,
      "么": 239,
      "义": 240,
      "之": 241,
      "乌": 242,
      "乍": 243,
      "乎": 244,
      "乏": 245,
      "乐": 246,
      "乒": 247,
      "乓": 248,
      "乔": 249,
      "乖": 250,
      "乗": 251,
      "乘": 252,
      "乙": 253,
      "乜": 254,
      "九": 255,
      "乞": 256,
      "也": 257,
      "习": 258,
      "乡": 259,
      "书": 260,
      "乩": 261,
      "买": 262,
      "乱": 263,
      "乳": 264,
      "乾": 265,
      "了": 266,
      "予": 267,
      "争": 268,
      "事": 269,
      "二": 270,
      "于": 271,
      "亏": 272,
      "云": 273,
      "互": 274,
      "五": 275,
      "井": 276,
      "亘": 277,
      "亚": 278,
      "些": 279,
      "亜": 280,
      "亟": 281,
      "亡": 282,
      "亢": 283,
      "交": 284,
      "亥": 285,
      "亦": 286,
      "产": 287,
      "亨": 288,
      "亩": 289,
      "享": 290,
      "京": 291,
      "亭": 292,
      "亮": 293,
      "亲": 294,
      "亳": 295,
      "亵": 296,
      "人": 297,
      "亿": 298,
      "什": 299,
      "仁": 300,
      "仃": 301,
      "仄": 302,
      "仅": 303,
      "仆": 304,
      "仇": 305,
      "今": 306,
      "介": 307,
      "仍": 308,
      "从": 309,
      "仑": 310,
      "仓": 311,
      "仔": 312,
      "仕": 313,
      "他": 314,
      "仗": 315,
      "付": 316,
      "仙": 317,
      "仝": 318,
      "仞": 319,
      "仟": 320,
      "代": 321,
      "令": 322,
      "以": 323,
      "仨": 324,
      "仪": 325,
      "们": 326,
      "仮": 327,
      "仰": 328,
      "仲": 329,
      "件": 330,
      "价": 331,
      "任": 332,
      "份": 333,
      "仿": 334,
      "企": 335,
      "伉": 336,
      "伊": 337,
      "伍": 338,
      "伎": 339,
      "伏": 340,
      "伐": 341,
      "休": 342,
      "众": 343,
      "优": 344,
      "伙": 345,
      "会": 346,
      "伝": 347,
      "伞": 348,
      "伟": 349,
      "传": 350,
      "伢": 351,
      "伤": 352,
      "伦": 353,
      "伪": 354,
      "伫": 355,
      "伯": 356,
      "估": 357,
      "伴": 358,
      "伶": 359,
      "伸": 360,
      "伺": 361,
      "似": 362,
      "伽": 363,
      "佃": 364,
      "但": 365,
      "位": 366,
      "低": 367,
      "住": 368,
      "佐": 369,
      "佑": 370,
      "体": 371,
      "何": 372,
      "佗": 373,
      "佘": 374,
      "余": 375,
      "佚": 376,
      "佛": 377,
      "作": 378,
      "佞": 379,
      "佟": 380,
      "你": 381,
      "佢": 382,
      "佣": 383,
      "佤": 384,
      "佥": 385,
      "佩": 386,
      "佬": 387,
      "佯": 388,
      "佰": 389,
      "佳": 390,
      "佶": 391,
      "佻": 392,
      "佼": 393,
      "使": 394,
      "侃": 395,
      "侄": 396,
      "侈": 397,
      "例": 398,
      "侍": 399,
      "侏": 400,
      "侑": 401,
      "侗": 402,
      "供": 403,
      "依": 404,
      "侠": 405,
      "価": 406,
      "侣": 407,
      "侥": 408,
      "侦": 409,
      "侧": 410,
      "侨": 411,
      "侬": 412,
      "侮": 413,
      "侯": 414,
      "侵": 415,
      "便": 416,
      "促": 417,
      "俄": 418,
      "俊": 419,
      "俎": 420,
      "俏": 421,
      "俐": 422,
      "俑": 423,
      "俗": 424,
      "俘": 425,
      "俚": 426,
      "保": 427,
      "俞": 428,
      "俟": 429,
      "信": 430,
      "俨": 431,
      "俩": 432,
      "俪": 433,
      "俭": 434,
      "修": 435,
      "俯": 436,
      "俱": 437,
      "俳": 438,
      "俸": 439,
      "俺": 440,
      "俾": 441,
      "倌": 442,
      "倍": 443,
      "倏": 444,
      "倒": 445,
      "倔": 446,
      "倘": 447,
      "候": 448,
      "倚": 449,
      "倜": 450,
      "借": 451,
      "倡": 452,
      "値": 453,
      "倦": 454,
      "倩": 455,
      "倪": 456,
      "倬": 457,
      "倭": 458,
      "债": 459,
      "值": 460,
      "倾": 461,
      "偃": 462,
      "假": 463,
      "偈": 464,
      "偌": 465,
      "偎": 466,
      "偏": 467,
      "偕": 468,
      "做": 469,
      "停": 470,
      "健": 471,
      "偶": 472,
      "偷": 473,
      "偻": 474,
      "偿": 475,
      "傀": 476,
      "傅": 477,
      "傍": 478,
      "傣": 479,
      "傥": 480,
      "储": 481,
      "傩": 482,
      "催": 483,
      "傲": 484,
      "傻": 485,
      "像": 486,
      "僖": 487,
      "僚": 488,
      "僧": 489,
      "僭": 490,
      "僮": 491,
      "僵": 492,
      "僻": 493,
      "儆": 494,
      "儋": 495,
      "儒": 496,
      "儡": 497,
      "儿": 498,
      "兀": 499,
      "允": 500,
      "元": 501,
      "兄": 502,
      "充": 503,
      "兆": 504,
      "先": 505,
      "光": 506,
      "克": 507,
      "免": 508,
      "児": 509,
      "兑": 510,
      "兔": 511,
      "兖": 512,
      "党": 513,
      "兜": 514,
      "兢": 515,
      "入": 516,
      "全": 517,
      "八": 518,
      "公": 519,
      "六": 520,
      "兮": 521,
      "兰": 522,
      "共": 523,
      "关": 524,
      "兴": 525,
      "兵": 526,
      "其": 527,
      "具": 528,
      "典": 529,
      "兹": 530,
      "养": 531,
      "兼": 532,
      "兽": 533,
      "冀": 534,
      "内": 535,
      "円": 536,
      "冇": 537,
      "冈": 538,
      "冉": 539,
      "册": 540,
      "再": 541,
      "冏": 542,
      "冒": 543,
      "冕": 544,
      "冗": 545,
      "写": 546,
      "军": 547,
      "农": 548,
      "冠": 549,
      "冢": 550,
      "冤": 551,
      "冥": 552,
      "冬": 553,
      "冯": 554,
      "冰": 555,
      "冲": 556,
      "决": 557,
      "况": 558,
      "冶": 559,
      "冷": 560,
      "冻": 561,
      "冼": 562,
      "冽": 563,
      "净": 564,
      "凄": 565,
      "准": 566,
      "凇": 567,
      "凉": 568,
      "凋": 569,
      "凌": 570,
      "减": 571,
      "凑": 572,
      "凛": 573,
      "凝": 574,
      "几": 575,
      "凡": 576,
      "凤": 577,
      "処": 578,
      "凪": 579,
      "凫": 580,
      "凭": 581,
      "凯": 582,
      "凰": 583,
      "凳": 584,
      "凶": 585,
      "凸": 586,
      "凹": 587,
      "出": 588,
      "击": 589,
      "函": 590,
      "凿": 591,
      "刀": 592,
      "刁": 593,
      "刃": 594,
      "分": 595,
      "切": 596,
      "刈": 597,
      "刊": 598,
      "刍": 599,
      "刎": 600,
      "刑": 601,
      "划": 602,
      "列": 603,
      "刘": 604,
      "则": 605,
      "刚": 606,
      "创": 607,
      "初": 608,
      "删": 609,
      "判": 610,
      "刨": 611,
      "利": 612,
      "别": 613,
      "刮": 614,
      "到": 615,
      "制": 616,
      "刷": 617,
      "券": 618,
      "刹": 619,
      "刺": 620,
      "刻": 621,
      "剁": 622,
      "剂": 623,
      "剃": 624,
      "削": 625,
      "剌": 626,
      "前": 627,
      "剐": 628,
      "剑": 629,
      "剔": 630,
      "剖": 631,
      "剜": 632,
      "剣": 633,
      "剥": 634,
      "剧": 635,
      "剩": 636,
      "剪": 637,
      "副": 638,
      "割": 639,
      "剽": 640,
      "剿": 641,
      "劈": 642,
      "力": 643,
      "劝": 644,
      "办": 645,
      "功": 646,
      "加": 647,
      "务": 648,
      "劣": 649,
      "动": 650,
      "助": 651,
      "努": 652,
      "劫": 653,
      "劭": 654,
      "励": 655,
      "劲": 656,
      "劳": 657,
      "劵": 658,
      "効": 659,
      "劾": 660,
      "势": 661,
      "勃": 662,
      "勇": 663,
      "勉": 664,
      "勋": 665,
      "勐": 666,
      "勒": 667,
      "勖": 668,
      "勘": 669,
      "募": 670,
      "勤": 671,
      "勺": 672,
      "勾": 673,
      "勿": 674,
      "匀": 675,
      "包": 676,
      "匆": 677,
      "匈": 678,
      "匍": 679,
      "匐": 680,
      "匕": 681,
      "化": 682,
      "北": 683,
      "匙": 684,
      "匝": 685,
      "匠": 686,
      "匡": 687,
      "匣": 688,
      "匪": 689,
      "匮": 690,
      "匹": 691,
      "区": 692,
      "医": 693,
      "匾": 694,
      "匿": 695,
      "十": 696,
      "千": 697,
      "卅": 698,
      "升": 699,
      "午": 700,
      "卉": 701,
      "半": 702,
      "卍": 703,
      "华": 704,
      "协": 705,
      "卑": 706,
      "卒": 707,
      "卓": 708,
      "单": 709,
      "卖": 710,
      "南": 711,
      "単": 712,
      "博": 713,
      "卜": 714,
      "卞": 715,
      "卟": 716,
      "占": 717,
      "卡": 718,
      "卢": 719,
      "卤": 720,
      "卦": 721,
      "卧": 722,
      "卫": 723,
      "卮": 724,
      "卯": 725,
      "印": 726,
      "危": 727,
      "即": 728,
      "却": 729,
      "卵": 730,
      "卷": 731,
      "卸": 732,
      "卿": 733,
      "厂": 734,
      "厄": 735,
      "厅": 736,
      "历": 737,
      "厉": 738,
      "压": 739,
      "厌": 740,
      "厕": 741,
      "厘": 742,
      "厚": 743,
      "厝": 744,
      "原": 745,
      "厢": 746,
      "厥": 747,
      "厦": 748,
      "厨": 749,
      "厩": 750,
      "厮": 751,
      "去": 752,
      "县": 753,
      "叁": 754,
      "参": 755,
      "又": 756,
      "叉": 757,
      "及": 758,
      "友": 759,
      "双": 760,
      "反": 761,
      "収": 762,
      "发": 763,
      "叔": 764,
      "取": 765,
      "受": 766,
      "变": 767,
      "叙": 768,
      "叛": 769,
      "叟": 770,
      "叠": 771,
      "叡": 772,
      "口": 773,
      "古": 774,
      "句": 775,
      "另": 776,
      "叨": 777,
      "叩": 778,
      "只": 779,
      "叫": 780,
      "召": 781,
      "叭": 782,
      "叮": 783,
      "可": 784,
      "台": 785,
      "叱": 786,
      "史": 787,
      "右": 788,
      "叵": 789,
      "叶": 790,
      "号": 791,
      "司": 792,
      "叹": 793,
      "叻": 794,
      "叼": 795,
      "叽": 796,
      "吁": 797,
      "吃": 798,
      "各": 799,
      "吆": 800,
      "合": 801,
      "吉": 802,
      "吊": 803,
      "吋": 804,
      "同": 805,
      "名": 806,
      "后": 807,
      "吏": 808,
      "吐": 809,
      "向": 810,
      "吒": 811,
      "吓": 812,
      "吕": 813,
      "吖": 814,
      "吗": 815,
      "君": 816,
      "吝": 817,
      "吞": 818,
      "吟": 819,
      "吠": 820,
      "吡": 821,
      "否": 822,
      "吧": 823,
      "吨": 824,
      "吩": 825,
      "含": 826,
      "听": 827,
      "吭": 828,
      "吮": 829,
      "启": 830,
      "吱": 831,
      "吴": 832,
      "吵": 833,
      "吸": 834,
      "吹": 835,
      "吻": 836,
      "吼": 837,
      "吽": 838,
      "吾": 839,
      "呀": 840,
      "呃": 841,
      "呆": 842,
      "呈": 843,
      "告": 844,
      "呋": 845,
      "呎": 846,
      "呐": 847,
      "呓": 848,
      "呕": 849,
      "呗": 850,
      "员": 851,
      "呛": 852,
      "呜": 853,
      "呢": 854,
      "呤": 855,
      "呦": 856,
      "周": 857,
      "呱": 858,
      "呲": 859,
      "味": 860,
      "呵": 861,
      "呷": 862,
      "呸": 863,
      "呻": 864,
      "呼": 865,
      "命": 866,
      "咀": 867,
      "咁": 868,
      "咂": 869,
      "咄": 870,
      "咆": 871,
      "咋": 872,
      "和": 873,
      "咎": 874,
      "咏": 875,
      "咒": 876,
      "咔": 877,
      "咕": 878,
      "咖": 879,
      "咗": 880,
      "咘": 881,
      "咙": 882,
      "咚": 883,
      "咣": 884,
      "咤": 885,
      "咦": 886,
      "咧": 887,
      "咨": 888,
      "咩": 889,
      "咪": 890,
      "咫": 891,
      "咬": 892,
      "咭": 893,
      "咯": 894,
      "咱": 895,
      "咲": 896,
      "咳": 897,
      "咸": 898,
      "咻": 899,
      "咽": 900,
      "咿": 901,
      "哀": 902,
      "品": 903,
      "哂": 904,
      "哄": 905,
      "哆": 906,
      "哇": 907,
      "哈": 908,
      "哉": 909,
      "哋": 910,
      "哌": 911,
      "响": 912,
      "哎": 913,
      "哏": 914,
      "哐": 915,
      "哑": 916,
      "哒": 917,
      "哔": 918,
      "哗": 919,
      "哟": 920,
      "哥": 921,
      "哦": 922,
      "哧": 923,
      "哨": 924,
      "哩": 925,
      "哪": 926,
      "哭": 927,
      "哮": 928,
      "哲": 929,
      "哺": 930,
      "哼": 931,
      "哽": 932,
      "唁": 933,
      "唆": 934,
      "唇": 935,
      "唉": 936,
      "唏": 937,
      "唐": 938,
      "唑": 939,
      "唔": 940,
      "唠": 941,
      "唤": 942,
      "唧": 943,
      "唬": 944,
      "售": 945,
      "唯": 946,
      "唰": 947,
      "唱": 948,
      "唳": 949,
      "唷": 950,
      "唾": 951,
      "啃": 952,
      "啄": 953,
      "商": 954,
      "啉": 955,
      "啊": 956,
      "啕": 957,
      "啖": 958,
      "啜": 959,
      "啡": 960,
      "啤": 961,
      "啥": 962,
      "啦": 963,
      "啧": 964,
      "啪": 965,
      "啫": 966,
      "啬": 967,
      "啮": 968,
      "啰": 969,
      "啲": 970,
      "啵": 971,
      "啶": 972,
      "啷": 973,
      "啸": 974,
      "啻": 975,
      "啼": 976,
      "啾": 977,
      "喀": 978,
      "喂": 979,
      "喃": 980,
      "善": 981,
      "喆": 982,
      "喇": 983,
      "喉": 984,
      "喊": 985,
      "喋": 986,
      "喏": 987,
      "喔": 988,
      "喘": 989,
      "喙": 990,
      "喜": 991,
      "喝": 992,
      "喟": 993,
      "喧": 994,
      "喰": 995,
      "喱": 996,
      "喳": 997,
      "喵": 998,
      "営": 999,
      "喷": 1000,
      "喹": 1001,
      "喺": 1002,
      "喻": 1003,
      "喽": 1004,
      "嗅": 1005,
      "嗑": 1006,
      "嗒": 1007,
      "嗓": 1008,
      "嗔": 1009,
      "嗖": 1010,
      "嗜": 1011,
      "嗝": 1012,
      "嗟": 1013,
      "嗡": 1014,
      "嗣": 1015,
      "嗤": 1016,
      "嗦": 1017,
      "嗨": 1018,
      "嗪": 1019,
      "嗬": 1020,
      "嗯": 1021,
      "嗲": 1022,
      "嗳": 1023,
      "嗷": 1024,
      "嗽": 1025,
      "嘀": 1026,
      "嘅": 1027,
      "嘈": 1028,
      "嘉": 1029,
      "嘌": 1030,
      "嘎": 1031,
      "嘘": 1032,
      "嘚": 1033,
      "嘛": 1034,
      "嘞": 1035,
      "嘟": 1036,
      "嘢": 1037,
      "嘣": 1038,
      "嘤": 1039,
      "嘧": 1040,
      "嘭": 1041,
      "嘱": 1042,
      "嘲": 1043,
      "嘴": 1044,
      "嘶": 1045,
      "嘹": 1046,
      "嘻": 1047,
      "嘿": 1048,
      "噌": 1049,
      "噎": 1050,
      "噔": 1051,
      "噗": 1052,
      "噙": 1053,
      "噜": 1054,
      "噢": 1055,
      "噤": 1056,
      "器": 1057,
      "噩": 1058,
      "噪": 1059,
      "噬": 1060,
      "噱": 1061,
      "噶": 1062,
      "噻": 1063,
      "嚎": 1064,
      "嚏": 1065,
      "嚓": 1066,
      "嚗": 1067,
      "嚟": 1068,
      "嚣": 1069,
      "嚷": 1070,
      "嚼": 1071,
      "囊": 1072,
      "囍": 1073,
      "囗": 1074,
      "囚": 1075,
      "四": 1076,
      "囝": 1077,
      "回": 1078,
      "囟": 1079,
      "因": 1080,
      "囡": 1081,
      "团": 1082,
      "団": 1083,
      "囤": 1084,
      "囧": 1085,
      "园": 1086,
      "困": 1087,
      "囱": 1088,
      "図": 1089,
      "围": 1090,
      "固": 1091,
      "国": 1092,
      "图": 1093,
      "囿": 1094,
      "圃": 1095,
      "圆": 1096,
      "圈": 1097,
      "圜": 1098,
      "土": 1099,
      "圣": 1100,
      "在": 1101,
      "圩": 1102,
      "圪": 1103,
      "圭": 1104,
      "地": 1105,
      "圳": 1106,
      "场": 1107,
      "圻": 1108,
      "圾": 1109,
      "址": 1110,
      "坂": 1111,
      "均": 1112,
      "坊": 1113,
      "坍": 1114,
      "坎": 1115,
      "坏": 1116,
      "坐": 1117,
      "坑": 1118,
      "块": 1119,
      "坚": 1120,
      "坛": 1121,
      "坝": 1122,
      "坞": 1123,
      "坟": 1124,
      "坠": 1125,
      "坡": 1126,
      "坤": 1127,
      "坦": 1128,
      "坨": 1129,
      "坪": 1130,
      "坯": 1131,
      "坳": 1132,
      "坷": 1133,
      "垂": 1134,
      "垃": 1135,
      "垄": 1136,
      "垅": 1137,
      "型": 1138,
      "垌": 1139,
      "垒": 1140,
      "垚": 1141,
      "垛": 1142,
      "垠": 1143,
      "垢": 1144,
      "垣": 1145,
      "垦": 1146,
      "垩": 1147,
      "垫": 1148,
      "垭": 1149,
      "垮": 1150,
      "垸": 1151,
      "埂": 1152,
      "埃": 1153,
      "埋": 1154,
      "城": 1155,
      "埔": 1156,
      "埕": 1157,
      "埗": 1158,
      "域": 1159,
      "埠": 1160,
      "埤": 1161,
      "埭": 1162,
      "埵": 1163,
      "埸": 1164,
      "培": 1165,
      "基": 1166,
      "埼": 1167,
      "堀": 1168,
      "堂": 1169,
      "堃": 1170,
      "堆": 1171,
      "堇": 1172,
      "堑": 1173,
      "堕": 1174,
      "堙": 1175,
      "堡": 1176,
      "堤": 1177,
      "堪": 1178,
      "堰": 1179,
      "堵": 1180,
      "堺": 1181,
      "塌": 1182,
      "塑": 1183,
      "塔": 1184,
      "塘": 1185,
      "塞": 1186,
      "塩": 1187,
      "填": 1188,
      "塬": 1189,
      "塾": 1190,
      "墀": 1191,
      "境": 1192,
      "墅": 1193,
      "墉": 1194,
      "墒": 1195,
      "墓": 1196,
      "増": 1197,
      "墘": 1198,
      "墙": 1199,
      "增": 1200,
      "墟": 1201,
      "墨": 1202,
      "墩": 1203,
      "壁": 1204,
      "壅": 1205,
      "壊": 1206,
      "壑": 1207,
      "壕": 1208,
      "壤": 1209,
      "士": 1210,
      "壬": 1211,
      "壮": 1212,
      "声": 1213,
      "売": 1214,
      "壳": 1215,
      "壶": 1216,
      "壹": 1217,
      "处": 1218,
      "备": 1219,
      "変": 1220,
      "复": 1221,
      "夏": 1222,
      "夔": 1223,
      "夕": 1224,
      "外": 1225,
      "夙": 1226,
      "多": 1227,
      "夜": 1228,
      "够": 1229,
      "大": 1230,
      "天": 1231,
      "太": 1232,
      "夫": 1233,
      "夭": 1234,
      "央": 1235,
      "夯": 1236,
      "失": 1237,
      "头": 1238,
      "夷": 1239,
      "夸": 1240,
      "夹": 1241,
      "夺": 1242,
      "奂": 1243,
      "奄": 1244,
      "奇": 1245,
      "奈": 1246,
      "奉": 1247,
      "奋": 1248,
      "奎": 1249,
      "奏": 1250,
      "契": 1251,
      "奔": 1252,
      "奕": 1253,
      "奖": 1254,
      "套": 1255,
      "奘": 1256,
      "奚": 1257,
      "奠": 1258,
      "奢": 1259,
      "奥": 1260,
      "女": 1261,
      "奴": 1262,
      "奶": 1263,
      "奸": 1264,
      "她": 1265,
      "好": 1266,
      "如": 1267,
      "妃": 1268,
      "妄": 1269,
      "妆": 1270,
      "妇": 1271,
      "妈": 1272,
      "妊": 1273,
      "妍": 1274,
      "妒": 1275,
      "妓": 1276,
      "妖": 1277,
      "妙": 1278,
      "妞": 1279,
      "妣": 1280,
      "妤": 1281,
      "妥": 1282,
      "妨": 1283,
      "妩": 1284,
      "妪": 1285,
      "妮": 1286,
      "妲": 1287,
      "妳": 1288,
      "妹": 1289,
      "妻": 1290,
      "妾": 1291,
      "姆": 1292,
      "姉": 1293,
      "姊": 1294,
      "始": 1295,
      "姐": 1296,
      "姑": 1297,
      "姒": 1298,
      "姓": 1299,
      "委": 1300,
      "姗": 1301,
      "姚": 1302,
      "姜": 1303,
      "姝": 1304,
      "姣": 1305,
      "姥": 1306,
      "姨": 1307,
      "姪": 1308,
      "姫": 1309,
      "姬": 1310,
      "姹": 1311,
      "姻": 1312,
      "姿": 1313,
      "威": 1314,
      "娃": 1315,
      "娄": 1316,
      "娅": 1317,
      "娆": 1318,
      "娇": 1319,
      "娉": 1320,
      "娑": 1321,
      "娘": 1322,
      "娜": 1323,
      "娟": 1324,
      "娣": 1325,
      "娥": 1326,
      "娩": 1327,
      "娱": 1328,
      "娲": 1329,
      "娴": 1330,
      "娶": 1331,
      "娼": 1332,
      "婆": 1333,
      "婉": 1334,
      "婊": 1335,
      "婕": 1336,
      "婚": 1337,
      "婢": 1338,
      "婧": 1339,
      "婴": 1340,
      "婵": 1341,
      "婶": 1342,
      "婷": 1343,
      "婺": 1344,
      "婿": 1345,
      "媒": 1346,
      "媚": 1347,
      "媛": 1348,
      "媞": 1349,
      "媲": 1350,
      "媳": 1351,
      "嫁": 1352,
      "嫂": 1353,
      "嫉": 1354,
      "嫌": 1355,
      "嫔": 1356,
      "嫖": 1357,
      "嫚": 1358,
      "嫡": 1359,
      "嫣": 1360,
      "嫦": 1361,
      "嫩": 1362,
      "嬅": 1363,
      "嬉": 1364,
      "嬛": 1365,
      "嬢": 1366,
      "嬴": 1367,
      "嬷": 1368,
      "嬿": 1369,
      "子": 1370,
      "孑": 1371,
      "孔": 1372,
      "孕": 1373,
      "孖": 1374,
      "字": 1375,
      "存": 1376,
      "孙": 1377,
      "孚": 1378,
      "孛": 1379,
      "孜": 1380,
      "孝": 1381,
      "孟": 1382,
      "孢": 1383,
      "季": 1384,
      "孤": 1385,
      "学": 1386,
      "孩": 1387,
      "孪": 1388,
      "孬": 1389,
      "孰": 1390,
      "孱": 1391,
      "孳": 1392,
      "孵": 1393,
      "孺": 1394,
      "孽": 1395,
      "宁": 1396,
      "它": 1397,
      "宅": 1398,
      "宇": 1399,
      "守": 1400,
      "安": 1401,
      "宋": 1402,
      "完": 1403,
      "宏": 1404,
      "宓": 1405,
      "宕": 1406,
      "宗": 1407,
      "官": 1408,
      "宙": 1409,
      "定": 1410,
      "宛": 1411,
      "宜": 1412,
      "宝": 1413,
      "实": 1414,
      "実": 1415,
      "宠": 1416,
      "审": 1417,
      "客": 1418,
      "宣": 1419,
      "室": 1420,
      "宥": 1421,
      "宦": 1422,
      "宪": 1423,
      "宫": 1424,
      "宰": 1425,
      "害": 1426,
      "宴": 1427,
      "宵": 1428,
      "家": 1429,
      "宸": 1430,
      "容": 1431,
      "宽": 1432,
      "宾": 1433,
      "宿": 1434,
      "寂": 1435,
      "寄": 1436,
      "寅": 1437,
      "密": 1438,
      "寇": 1439,
      "富": 1440,
      "寐": 1441,
      "寒": 1442,
      "寓": 1443,
      "寛": 1444,
      "寝": 1445,
      "寞": 1446,
      "察": 1447,
      "寡": 1448,
      "寥": 1449,
      "寨": 1450,
      "寮": 1451,
      "寰": 1452,
      "寸": 1453,
      "对": 1454,
      "寺": 1455,
      "寻": 1456,
      "导": 1457,
      "対": 1458,
      "寿": 1459,
      "封": 1460,
      "専": 1461,
      "射": 1462,
      "将": 1463,
      "尉": 1464,
      "尊": 1465,
      "小": 1466,
      "少": 1467,
      "尔": 1468,
      "尕": 1469,
      "尖": 1470,
      "尘": 1471,
      "尚": 1472,
      "尝": 1473,
      "尤": 1474,
      "尧": 1475,
      "尬": 1476,
      "就": 1477,
      "尴": 1478,
      "尸": 1479,
      "尹": 1480,
      "尺": 1481,
      "尻": 1482,
      "尼": 1483,
      "尽": 1484,
      "尾": 1485,
      "尿": 1486,
      "局": 1487,
      "屁": 1488,
      "层": 1489,
      "居": 1490,
      "屈": 1491,
      "屉": 1492,
      "届": 1493,
      "屋": 1494,
      "屌": 1495,
      "屎": 1496,
      "屏": 1497,
      "屐": 1498,
      "屑": 1499,
      "展": 1500,
      "属": 1501,
      "屠": 1502,
      "屡": 1503,
      "履": 1504,
      "屯": 1505,
      "山": 1506,
      "屹": 1507,
      "屿": 1508,
      "岀": 1509,
      "岁": 1510,
      "岂": 1511,
      "岌": 1512,
      "岐": 1513,
      "岑": 1514,
      "岔": 1515,
      "岗": 1516,
      "岘": 1517,
      "岙": 1518,
      "岚": 1519,
      "岛": 1520,
      "岩": 1521,
      "岫": 1522,
      "岬": 1523,
      "岭": 1524,
      "岱": 1525,
      "岳": 1526,
      "岷": 1527,
      "岸": 1528,
      "峄": 1529,
      "峇": 1530,
      "峒": 1531,
      "峙": 1532,
      "峡": 1533,
      "峤": 1534,
      "峥": 1535,
      "峦": 1536,
      "峨": 1537,
      "峪": 1538,
      "峭": 1539,
      "峰": 1540,
      "峻": 1541,
      "崁": 1542,
      "崂": 1543,
      "崆": 1544,
      "崇": 1545,
      "崎": 1546,
      "崔": 1547,
      "崖": 1548,
      "崛": 1549,
      "崧": 1550,
      "崩": 1551,
      "崭": 1552,
      "崮": 1553,
      "崴": 1554,
      "崽": 1555,
      "嵇": 1556,
      "嵊": 1557,
      "嵋": 1558,
      "嵌": 1559,
      "嵘": 1560,
      "嵩": 1561,
      "嵬": 1562,
      "嵴": 1563,
      "嶂": 1564,
      "嶋": 1565,
      "嶙": 1566,
      "巅": 1567,
      "巍": 1568,
      "川": 1569,
      "州": 1570,
      "巡": 1571,
      "巢": 1572,
      "工": 1573,
      "左": 1574,
      "巧": 1575,
      "巨": 1576,
      "巩": 1577,
      "巫": 1578,
      "差": 1579,
      "己": 1580,
      "已": 1581,
      "巳": 1582,
      "巴": 1583,
      "巷": 1584,
      "巻": 1585,
      "巽": 1586,
      "巾": 1587,
      "巿": 1588,
      "币": 1589,
      "市": 1590,
      "布": 1591,
      "帅": 1592,
      "帆": 1593,
      "师": 1594,
      "希": 1595,
      "帐": 1596,
      "帑": 1597,
      "帕": 1598,
      "帖": 1599,
      "帘": 1600,
      "帚": 1601,
      "帛": 1602,
      "帜": 1603,
      "帝": 1604,
      "带": 1605,
      "帧": 1606,
      "席": 1607,
      "帮": 1608,
      "帯": 1609,
      "帰": 1610,
      "帷": 1611,
      "常": 1612,
      "帼": 1613,
      "帽": 1614,
      "幂": 1615,
      "幄": 1616,
      "幅": 1617,
      "幌": 1618,
      "幔": 1619,
      "幕": 1620,
      "幡": 1621,
      "幢": 1622,
      "干": 1623,
      "平": 1624,
      "年": 1625,
      "并": 1626,
      "幸": 1627,
      "幺": 1628,
      "幻": 1629,
      "幼": 1630,
      "幽": 1631,
      "广": 1632,
      "広": 1633,
      "庄": 1634,
      "庆": 1635,
      "庇": 1636,
      "床": 1637,
      "序": 1638,
      "庐": 1639,
      "庑": 1640,
      "库": 1641,
      "应": 1642,
      "底": 1643,
      "庖": 1644,
      "店": 1645,
      "庙": 1646,
      "庚": 1647,
      "府": 1648,
      "庞": 1649,
      "废": 1650,
      "庠": 1651,
      "度": 1652,
      "座": 1653,
      "庭": 1654,
      "庵": 1655,
      "庶": 1656,
      "康": 1657,
      "庸": 1658,
      "庹": 1659,
      "庾": 1660,
      "廉": 1661,
      "廊": 1662,
      "廓": 1663,
      "廖": 1664,
      "廪": 1665,
      "延": 1666,
      "廷": 1667,
      "建": 1668,
      "廿": 1669,
      "开": 1670,
      "弁": 1671,
      "异": 1672,
      "弃": 1673,
      "弄": 1674,
      "弈": 1675,
      "弊": 1676,
      "弋": 1677,
      "式": 1678,
      "弑": 1679,
      "弓": 1680,
      "引": 1681,
      "弗": 1682,
      "弘": 1683,
      "弛": 1684,
      "弟": 1685,
      "张": 1686,
      "弥": 1687,
      "弦": 1688,
      "弧": 1689,
      "弩": 1690,
      "弭": 1691,
      "弯": 1692,
      "弱": 1693,
      "弹": 1694,
      "强": 1695,
      "弼": 1696,
      "弾": 1697,
      "归": 1698,
      "当": 1699,
      "录": 1700,
      "彗": 1701,
      "彝": 1702,
      "形": 1703,
      "彤": 1704,
      "彦": 1705,
      "彧": 1706,
      "彩": 1707,
      "彪": 1708,
      "彬": 1709,
      "彭": 1710,
      "彰": 1711,
      "影": 1712,
      "彷": 1713,
      "役": 1714,
      "彻": 1715,
      "彼": 1716,
      "往": 1717,
      "征": 1718,
      "径": 1719,
      "待": 1720,
      "徇": 1721,
      "很": 1722,
      "徊": 1723,
      "律": 1724,
      "徐": 1725,
      "徒": 1726,
      "従": 1727,
      "徕": 1728,
      "得": 1729,
      "徘": 1730,
      "徙": 1731,
      "御": 1732,
      "徨": 1733,
      "循": 1734,
      "微": 1735,
      "徳": 1736,
      "徴": 1737,
      "德": 1738,
      "徼": 1739,
      "徽": 1740,
      "心": 1741,
      "必": 1742,
      "忆": 1743,
      "忌": 1744,
      "忍": 1745,
      "忏": 1746,
      "忒": 1747,
      "忖": 1748,
      "志": 1749,
      "忘": 1750,
      "忙": 1751,
      "応": 1752,
      "忠": 1753,
      "忡": 1754,
      "忤": 1755,
      "忧": 1756,
      "快": 1757,
      "忱": 1758,
      "念": 1759,
      "忻": 1760,
      "忽": 1761,
      "忿": 1762,
      "怀": 1763,
      "态": 1764,
      "怂": 1765,
      "怅": 1766,
      "怆": 1767,
      "怎": 1768,
      "怏": 1769,
      "怒": 1770,
      "怔": 1771,
      "怕": 1772,
      "怖": 1773,
      "怙": 1774,
      "怜": 1775,
      "思": 1776,
      "怠": 1777,
      "怡": 1778,
      "急": 1779,
      "怦": 1780,
      "性": 1781,
      "怨": 1782,
      "怪": 1783,
      "怯": 1784,
      "怵": 1785,
      "总": 1786,
      "怼": 1787,
      "恁": 1788,
      "恃": 1789,
      "恋": 1790,
      "恍": 1791,
      "恐": 1792,
      "恒": 1793,
      "恕": 1794,
      "恙": 1795,
      "恚": 1796,
      "恢": 1797,
      "恣": 1798,
      "恤": 1799,
      "恨": 1800,
      "恩": 1801,
      "恪": 1802,
      "恬": 1803,
      "恭": 1804,
      "息": 1805,
      "恰": 1806,
      "恳": 1807,
      "恵": 1808,
      "恶": 1809,
      "恸": 1810,
      "恺": 1811,
      "恻": 1812,
      "恼": 1813,
      "恽": 1814,
      "悄": 1815,
      "悉": 1816,
      "悌": 1817,
      "悍": 1818,
      "悔": 1819,
      "悖": 1820,
      "悚": 1821,
      "悟": 1822,
      "悠": 1823,
      "患": 1824,
      "悦": 1825,
      "您": 1826,
      "悪": 1827,
      "悬": 1828,
      "悯": 1829,
      "悱": 1830,
      "悲": 1831,
      "悴": 1832,
      "悸": 1833,
      "悻": 1834,
      "悼": 1835,
      "情": 1836,
      "惇": 1837,
      "惊": 1838,
      "惋": 1839,
      "惑": 1840,
      "惕": 1841,
      "惘": 1842,
      "惚": 1843,
      "惜": 1844,
      "惟": 1845,
      "惠": 1846,
      "惦": 1847,
      "惧": 1848,
      "惨": 1849,
      "惩": 1850,
      "惫": 1851,
      "惬": 1852,
      "惭": 1853,
      "惮": 1854,
      "惯": 1855,
      "惰": 1856,
      "想": 1857,
      "惶": 1858,
      "惹": 1859,
      "惺": 1860,
      "愁": 1861,
      "愆": 1862,
      "愈": 1863,
      "愉": 1864,
      "愍": 1865,
      "意": 1866,
      "愕": 1867,
      "愚": 1868,
      "感": 1869,
      "愣": 1870,
      "愤": 1871,
      "愧": 1872,
      "愫": 1873,
      "愿": 1874,
      "慈": 1875,
      "慌": 1876,
      "慎": 1877,
      "慑": 1878,
      "慕": 1879,
      "慢": 1880,
      "慧": 1881,
      "慨": 1882,
      "慰": 1883,
      "慵": 1884,
      "慷": 1885,
      "憋": 1886,
      "憎": 1887,
      "憧": 1888,
      "憨": 1889,
      "憩": 1890,
      "憬": 1891,
      "憭": 1892,
      "憾": 1893,
      "懂": 1894,
      "懈": 1895,
      "懊": 1896,
      "懋": 1897,
      "懒": 1898,
      "懦": 1899,
      "懵": 1900,
      "懿": 1901,
      "戈": 1902,
      "戊": 1903,
      "戌": 1904,
      "戍": 1905,
      "戎": 1906,
      "戏": 1907,
      "成": 1908,
      "我": 1909,
      "戒": 1910,
      "戕": 1911,
      "或": 1912,
      "战": 1913,
      "戚": 1914,
      "戛": 1915,
      "戟": 1916,
      "戡": 1917,
      "戦": 1918,
      "截": 1919,
      "戬": 1920,
      "戮": 1921,
      "戳": 1922,
      "戴": 1923,
      "户": 1924,
      "戸": 1925,
      "戻": 1926,
      "戾": 1927,
      "房": 1928,
      "所": 1929,
      "扁": 1930,
      "扇": 1931,
      "扈": 1932,
      "扉": 1933,
      "手": 1934,
      "才": 1935,
      "扎": 1936,
      "扑": 1937,
      "扒": 1938,
      "打": 1939,
      "扔": 1940,
      "托": 1941,
      "扛": 1942,
      "扣": 1943,
      "扦": 1944,
      "执": 1945,
      "扩": 1946,
      "扪": 1947,
      "扫": 1948,
      "扬": 1949,
      "扭": 1950,
      "扮": 1951,
      "扯": 1952,
      "扰": 1953,
      "扳": 1954,
      "扶": 1955,
      "批": 1956,
      "扼": 1957,
      "找": 1958,
      "承": 1959,
      "技": 1960,
      "抄": 1961,
      "抉": 1962,
      "把": 1963,
      "抑": 1964,
      "抒": 1965,
      "抓": 1966,
      "投": 1967,
      "抖": 1968,
      "抗": 1969,
      "折": 1970,
      "抚": 1971,
      "抛": 1972,
      "抜": 1973,
      "抟": 1974,
      "抠": 1975,
      "抡": 1976,
      "抢": 1977,
      "护": 1978,
      "报": 1979,
      "披": 1980,
      "抬": 1981,
      "抱": 1982,
      "抵": 1983,
      "抹": 1984,
      "押": 1985,
      "抽": 1986,
      "抿": 1987,
      "拂": 1988,
      "拄": 1989,
      "担": 1990,
      "拆": 1991,
      "拇": 1992,
      "拈": 1993,
      "拉": 1994,
      "拌": 1995,
      "拍": 1996,
      "拎": 1997,
      "拐": 1998,
      "拒": 1999,
      "拓": 2000,
      "拔": 2001,
      "拖": 2002,
      "拗": 2003,
      "拘": 2004,
      "拙": 2005,
      "拚": 2006,
      "招": 2007,
      "拜": 2008,
      "拟": 2009,
      "拢": 2010,
      "拣": 2011,
      "拥": 2012,
      "拦": 2013,
      "拧": 2014,
      "拨": 2015,
      "择": 2016,
      "括": 2017,
      "拭": 2018,
      "拯": 2019,
      "拱": 2020,
      "拳": 2021,
      "拴": 2022,
      "拷": 2023,
      "拼": 2024,
      "拽": 2025,
      "拾": 2026,
      "拿": 2027,
      "持": 2028,
      "挂": 2029,
      "指": 2030,
      "挈": 2031,
      "按": 2032,
      "挎": 2033,
      "挑": 2034,
      "挖": 2035,
      "挚": 2036,
      "挛": 2037,
      "挝": 2038,
      "挞": 2039,
      "挟": 2040,
      "挠": 2041,
      "挡": 2042,
      "挢": 2043,
      "挣": 2044,
      "挤": 2045,
      "挥": 2046,
      "挨": 2047,
      "挪": 2048,
      "挫": 2049,
      "振": 2050,
      "挹": 2051,
      "挺": 2052,
      "挽": 2053,
      "捂": 2054,
      "捅": 2055,
      "捆": 2056,
      "捉": 2057,
      "捋": 2058,
      "捌": 2059,
      "捍": 2060,
      "捎": 2061,
      "捏": 2062,
      "捐": 2063,
      "捕": 2064,
      "捞": 2065,
      "损": 2066,
      "捡": 2067,
      "换": 2068,
      "捣": 2069,
      "捧": 2070,
      "捩": 2071,
      "据": 2072,
      "捶": 2073,
      "捷": 2074,
      "捺": 2075,
      "捻": 2076,
      "掀": 2077,
      "掂": 2078,
      "掇": 2079,
      "授": 2080,
      "掉": 2081,
      "掌": 2082,
      "掏": 2083,
      "掐": 2084,
      "排": 2085,
      "掖": 2086,
      "掘": 2087,
      "掠": 2088,
      "探": 2089,
      "掣": 2090,
      "接": 2091,
      "控": 2092,
      "推": 2093,
      "掩": 2094,
      "措": 2095,
      "掬": 2096,
      "掰": 2097,
      "掲": 2098,
      "掳": 2099,
      "掴": 2100,
      "掷": 2101,
      "掸": 2102,
      "掺": 2103,
      "掾": 2104,
      "揆": 2105,
      "揉": 2106,
      "揍": 2107,
      "描": 2108,
      "提": 2109,
      "插": 2110,
      "揖": 2111,
      "握": 2112,
      "揣": 2113,
      "揩": 2114,
      "揪": 2115,
      "揭": 2116,
      "援": 2117,
      "揽": 2118,
      "搀": 2119,
      "搁": 2120,
      "搂": 2121,
      "搅": 2122,
      "搏": 2123,
      "搐": 2124,
      "搓": 2125,
      "搔": 2126,
      "搜": 2127,
      "搞": 2128,
      "搪": 2129,
      "搬": 2130,
      "搭": 2131,
      "携": 2132,
      "搽": 2133,
      "摁": 2134,
      "摄": 2135,
      "摆": 2136,
      "摇": 2137,
      "摈": 2138,
      "摊": 2139,
      "摒": 2140,
      "摔": 2141,
      "摘": 2142,
      "摞": 2143,
      "摧": 2144,
      "摩": 2145,
      "摰": 2146,
      "摸": 2147,
      "摹": 2148,
      "撂": 2149,
      "撃": 2150,
      "撅": 2151,
      "撇": 2152,
      "撑": 2153,
      "撒": 2154,
      "撕": 2155,
      "撞": 2156,
      "撤": 2157,
      "撩": 2158,
      "撬": 2159,
      "播": 2160,
      "撮": 2161,
      "撰": 2162,
      "撵": 2163,
      "撷": 2164,
      "撸": 2165,
      "撼": 2166,
      "擀": 2167,
      "擂": 2168,
      "擅": 2169,
      "操": 2170,
      "擎": 2171,
      "擒": 2172,
      "擘": 2173,
      "擢": 2174,
      "擦": 2175,
      "攀": 2176,
      "攒": 2177,
      "攘": 2178,
      "攥": 2179,
      "攫": 2180,
      "支": 2181,
      "收": 2182,
      "攸": 2183,
      "改": 2184,
      "攻": 2185,
      "放": 2186,
      "政": 2187,
      "故": 2188,
      "效": 2189,
      "敌": 2190,
      "敍": 2191,
      "敏": 2192,
      "救": 2193,
      "敕": 2194,
      "敖": 2195,
      "教": 2196,
      "敛": 2197,
      "敝": 2198,
      "敞": 2199,
      "敢": 2200,
      "散": 2201,
      "敦": 2202,
      "敬": 2203,
      "数": 2204,
      "敲": 2205,
      "整": 2206,
      "敷": 2207,
      "文": 2208,
      "斋": 2209,
      "斌": 2210,
      "斎": 2211,
      "斐": 2212,
      "斑": 2213,
      "斓": 2214,
      "斗": 2215,
      "料": 2216,
      "斛": 2217,
      "斜": 2218,
      "斟": 2219,
      "斡": 2220,
      "斤": 2221,
      "斥": 2222,
      "斧": 2223,
      "斩": 2224,
      "斫": 2225,
      "断": 2226,
      "斯": 2227,
      "新": 2228,
      "方": 2229,
      "於": 2230,
      "施": 2231,
      "旁": 2232,
      "旃": 2233,
      "旅": 2234,
      "旋": 2235,
      "旌": 2236,
      "旎": 2237,
      "族": 2238,
      "旖": 2239,
      "旗": 2240,
      "无": 2241,
      "既": 2242,
      "日": 2243,
      "旦": 2244,
      "旧": 2245,
      "旨": 2246,
      "早": 2247,
      "旬": 2248,
      "旭": 2249,
      "旱": 2250,
      "时": 2251,
      "旷": 2252,
      "旸": 2253,
      "旺": 2254,
      "旻": 2255,
      "昀": 2256,
      "昂": 2257,
      "昆": 2258,
      "昉": 2259,
      "昊": 2260,
      "昌": 2261,
      "明": 2262,
      "昏": 2263,
      "易": 2264,
      "昔": 2265,
      "昕": 2266,
      "昙": 2267,
      "星": 2268,
      "映": 2269,
      "春": 2270,
      "昧": 2271,
      "昨": 2272,
      "昭": 2273,
      "是": 2274,
      "昱": 2275,
      "昴": 2276,
      "昵": 2277,
      "昶": 2278,
      "昼": 2279,
      "显": 2280,
      "晁": 2281,
      "晃": 2282,
      "晋": 2283,
      "晌": 2284,
      "晏": 2285,
      "晒": 2286,
      "晓": 2287,
      "晔": 2288,
      "晕": 2289,
      "晖": 2290,
      "晗": 2291,
      "晚": 2292,
      "晞": 2293,
      "晟": 2294,
      "晤": 2295,
      "晦": 2296,
      "晨": 2297,
      "晩": 2298,
      "普": 2299,
      "景": 2300,
      "晰": 2301,
      "晴": 2302,
      "晶": 2303,
      "晷": 2304,
      "智": 2305,
      "晾": 2306,
      "暂": 2307,
      "暄": 2308,
      "暇": 2309,
      "暐": 2310,
      "暑": 2311,
      "暖": 2312,
      "暗": 2313,
      "暝": 2314,
      "暧": 2315,
      "暨": 2316,
      "暮": 2317,
      "暱": 2318,
      "暴": 2319,
      "暹": 2320,
      "曙": 2321,
      "曜": 2322,
      "曝": 2323,
      "曦": 2324,
      "曰": 2325,
      "曲": 2326,
      "曳": 2327,
      "更": 2328,
      "曹": 2329,
      "曼": 2330,
      "曾": 2331,
      "替": 2332,
      "最": 2333,
      "月": 2334,
      "有": 2335,
      "朋": 2336,
      "服": 2337,
      "朐": 2338,
      "朔": 2339,
      "朕": 2340,
      "朗": 2341,
      "望": 2342,
      "朝": 2343,
      "期": 2344,
      "朦": 2345,
      "木": 2346,
      "未": 2347,
      "末": 2348,
      "本": 2349,
      "札": 2350,
      "术": 2351,
      "朱": 2352,
      "朴": 2353,
      "朵": 2354,
      "机": 2355,
      "朽": 2356,
      "杀": 2357,
      "杂": 2358,
      "权": 2359,
      "杆": 2360,
      "杈": 2361,
      "杉": 2362,
      "李": 2363,
      "杏": 2364,
      "材": 2365,
      "村": 2366,
      "杓": 2367,
      "杖": 2368,
      "杜": 2369,
      "杞": 2370,
      "束": 2371,
      "杠": 2372,
      "条": 2373,
      "来": 2374,
      "杨": 2375,
      "杭": 2376,
      "杯": 2377,
      "杰": 2378,
      "杲": 2379,
      "杳": 2380,
      "杵": 2381,
      "杷": 2382,
      "杼": 2383,
      "松": 2384,
      "板": 2385,
      "极": 2386,
      "构": 2387,
      "枇": 2388,
      "枉": 2389,
      "枋": 2390,
      "析": 2391,
      "枕": 2392,
      "林": 2393,
      "枚": 2394,
      "果": 2395,
      "枝": 2396,
      "枢": 2397,
      "枣": 2398,
      "枪": 2399,
      "枫": 2400,
      "枭": 2401,
      "枯": 2402,
      "枰": 2403,
      "枳": 2404,
      "架": 2405,
      "枷": 2406,
      "枸": 2407,
      "柄": 2408,
      "柏": 2409,
      "某": 2410,
      "柑": 2411,
      "柒": 2412,
      "染": 2413,
      "柔": 2414,
      "柘": 2415,
      "柚": 2416,
      "柜": 2417,
      "柞": 2418,
      "柠": 2419,
      "柢": 2420,
      "查": 2421,
      "柩": 2422,
      "柬": 2423,
      "柯": 2424,
      "柱": 2425,
      "柳": 2426,
      "柴": 2427,
      "柿": 2428,
      "栀": 2429,
      "栃": 2430,
      "栄": 2431,
      "栅": 2432,
      "标": 2433,
      "栈": 2434,
      "栉": 2435,
      "栋": 2436,
      "栎": 2437,
      "栏": 2438,
      "树": 2439,
      "栓": 2440,
      "栖": 2441,
      "栗": 2442,
      "校": 2443,
      "栩": 2444,
      "株": 2445,
      "样": 2446,
      "核": 2447,
      "根": 2448,
      "格": 2449,
      "栽": 2450,
      "栾": 2451,
      "桀": 2452,
      "桁": 2453,
      "桂": 2454,
      "桃": 2455,
      "桅": 2456,
      "框": 2457,
      "案": 2458,
      "桉": 2459,
      "桌": 2460,
      "桐": 2461,
      "桑": 2462,
      "桓": 2463,
      "桔": 2464,
      "桜": 2465,
      "桠": 2466,
      "桡": 2467,
      "桢": 2468,
      "档": 2469,
      "桥": 2470,
      "桦": 2471,
      "桧": 2472,
      "桨": 2473,
      "桩": 2474,
      "桶": 2475,
      "梁": 2476,
      "梅": 2477,
      "梆": 2478,
      "梓": 2479,
      "梗": 2480,
      "梢": 2481,
      "梦": 2482,
      "梧": 2483,
      "梨": 2484,
      "梭": 2485,
      "梯": 2486,
      "械": 2487,
      "梳": 2488,
      "梵": 2489,
      "梶": 2490,
      "检": 2491,
      "棂": 2492,
      "棉": 2493,
      "棋": 2494,
      "棍": 2495,
      "棒": 2496,
      "棕": 2497,
      "棘": 2498,
      "棚": 2499,
      "棠": 2500,
      "棣": 2501,
      "森": 2502,
      "棱": 2503,
      "棵": 2504,
      "棹": 2505,
      "棺": 2506,
      "椁": 2507,
      "椅": 2508,
      "椋": 2509,
      "植": 2510,
      "椎": 2511,
      "椒": 2512,
      "検": 2513,
      "椪": 2514,
      "椭": 2515,
      "椰": 2516,
      "椹": 2517,
      "椽": 2518,
      "椿": 2519,
      "楂": 2520,
      "楔": 2521,
      "楚": 2522,
      "楝": 2523,
      "楞": 2524,
      "楠": 2525,
      "楣": 2526,
      "楫": 2527,
      "楮": 2528,
      "楷": 2529,
      "楸": 2530,
      "楹": 2531,
      "楼": 2532,
      "楽": 2533,
      "概": 2534,
      "榄": 2535,
      "榆": 2536,
      "榈": 2537,
      "榉": 2538,
      "榔": 2539,
      "榕": 2540,
      "榖": 2541,
      "榛": 2542,
      "榜": 2543,
      "榨": 2544,
      "榫": 2545,
      "榭": 2546,
      "榱": 2547,
      "榴": 2548,
      "榷": 2549,
      "榻": 2550,
      "槁": 2551,
      "槃": 2552,
      "槌": 2553,
      "槎": 2554,
      "槐": 2555,
      "様": 2556,
      "槛": 2557,
      "槟": 2558,
      "槭": 2559,
      "槲": 2560,
      "槻": 2561,
      "槽": 2562,
      "槿": 2563,
      "樊": 2564,
      "樟": 2565,
      "模": 2566,
      "権": 2567,
      "横": 2568,
      "樯": 2569,
      "樱": 2570,
      "樵": 2571,
      "樽": 2572,
      "樾": 2573,
      "橄": 2574,
      "橇": 2575,
      "橐": 2576,
      "橘": 2577,
      "橙": 2578,
      "橡": 2579,
      "橱": 2580,
      "橹": 2581,
      "檀": 2582,
      "檄": 2583,
      "檎": 2584,
      "檐": 2585,
      "檬": 2586,
      "欠": 2587,
      "次": 2588,
      "欢": 2589,
      "欣": 2590,
      "欤": 2591,
      "欧": 2592,
      "欲": 2593,
      "欸": 2594,
      "欺": 2595,
      "款": 2596,
      "歆": 2597,
      "歇": 2598,
      "歉": 2599,
      "歌": 2600,
      "歙": 2601,
      "止": 2602,
      "正": 2603,
      "此": 2604,
      "步": 2605,
      "武": 2606,
      "歧": 2607,
      "歩": 2608,
      "歪": 2609,
      "歳": 2610,
      "歴": 2611,
      "歹": 2612,
      "死": 2613,
      "歼": 2614,
      "殁": 2615,
      "殃": 2616,
      "殆": 2617,
      "殇": 2618,
      "殉": 2619,
      "殊": 2620,
      "残": 2621,
      "殒": 2622,
      "殓": 2623,
      "殖": 2624,
      "殡": 2625,
      "殴": 2626,
      "段": 2627,
      "殷": 2628,
      "殿": 2629,
      "毁": 2630,
      "毂": 2631,
      "毅": 2632,
      "毋": 2633,
      "母": 2634,
      "毎": 2635,
      "每": 2636,
      "毒": 2637,
      "毓": 2638,
      "比": 2639,
      "毕": 2640,
      "毗": 2641,
      "毘": 2642,
      "毙": 2643,
      "毛": 2644,
      "毡": 2645,
      "毫": 2646,
      "毯": 2647,
      "毽": 2648,
      "氏": 2649,
      "氐": 2650,
      "民": 2651,
      "氓": 2652,
      "气": 2653,
      "氖": 2654,
      "気": 2655,
      "氙": 2656,
      "氛": 2657,
      "氟": 2658,
      "氡": 2659,
      "氢": 2660,
      "氦": 2661,
      "氧": 2662,
      "氨": 2663,
      "氪": 2664,
      "氮": 2665,
      "氯": 2666,
      "氰": 2667,
      "氲": 2668,
      "水": 2669,
      "氷": 2670,
      "永": 2671,
      "氹": 2672,
      "氽": 2673,
      "汀": 2674,
      "汁": 2675,
      "求": 2676,
      "汆": 2677,
      "汇": 2678,
      "汉": 2679,
      "汐": 2680,
      "汕": 2681,
      "汗": 2682,
      "汛": 2683,
      "汝": 2684,
      "汞": 2685,
      "江": 2686,
      "池": 2687,
      "污": 2688,
      "汤": 2689,
      "汨": 2690,
      "汩": 2691,
      "汪": 2692,
      "汰": 2693,
      "汲": 2694,
      "汴": 2695,
      "汶": 2696,
      "汹": 2697,
      "汽": 2698,
      "汾": 2699,
      "沁": 2700,
      "沂": 2701,
      "沃": 2702,
      "沅": 2703,
      "沈": 2704,
      "沉": 2705,
      "沌": 2706,
      "沏": 2707,
      "沐": 2708,
      "沓": 2709,
      "沙": 2710,
      "沛": 2711,
      "沟": 2712,
      "没": 2713,
      "沢": 2714,
      "沣": 2715,
      "沥": 2716,
      "沦": 2717,
      "沧": 2718,
      "沪": 2719,
      "沫": 2720,
      "沭": 2721,
      "沮": 2722,
      "沱": 2723,
      "河": 2724,
      "沸": 2725,
      "油": 2726,
      "治": 2727,
      "沼": 2728,
      "沽": 2729,
      "沾": 2730,
      "沿": 2731,
      "泄": 2732,
      "泉": 2733,
      "泊": 2734,
      "泌": 2735,
      "泓": 2736,
      "法": 2737,
      "泗": 2738,
      "泛": 2739,
      "泞": 2740,
      "泠": 2741,
      "泡": 2742,
      "波": 2743,
      "泣": 2744,
      "泥": 2745,
      "注": 2746,
      "泪": 2747,
      "泫": 2748,
      "泮": 2749,
      "泯": 2750,
      "泰": 2751,
      "泱": 2752,
      "泳": 2753,
      "泵": 2754,
      "泷": 2755,
      "泸": 2756,
      "泻": 2757,
      "泼": 2758,
      "泽": 2759,
      "泾": 2760,
      "洁": 2761,
      "洄": 2762,
      "洋": 2763,
      "洒": 2764,
      "洗": 2765,
      "洙": 2766,
      "洛": 2767,
      "洞": 2768,
      "津": 2769,
      "洪": 2770,
      "洮": 2771,
      "洱": 2772,
      "洲": 2773,
      "洵": 2774,
      "洸": 2775,
      "洹": 2776,
      "活": 2777,
      "洼": 2778,
      "洽": 2779,
      "派": 2780,
      "流": 2781,
      "浃": 2782,
      "浄": 2783,
      "浅": 2784,
      "浆": 2785,
      "浇": 2786,
      "浊": 2787,
      "测": 2788,
      "济": 2789,
      "浏": 2790,
      "浑": 2791,
      "浒": 2792,
      "浓": 2793,
      "浔": 2794,
      "浙": 2795,
      "浚": 2796,
      "浜": 2797,
      "浣": 2798,
      "浦": 2799,
      "浩": 2800,
      "浪": 2801,
      "浬": 2802,
      "浮": 2803,
      "浯": 2804,
      "浴": 2805,
      "海": 2806,
      "浸": 2807,
      "涂": 2808,
      "涅": 2809,
      "消": 2810,
      "涉": 2811,
      "涌": 2812,
      "涎": 2813,
      "涓": 2814,
      "涔": 2815,
      "涕": 2816,
      "涙": 2817,
      "涛": 2818,
      "涝": 2819,
      "涞": 2820,
      "涟": 2821,
      "涠": 2822,
      "涡": 2823,
      "涣": 2824,
      "涤": 2825,
      "润": 2826,
      "涧": 2827,
      "涨": 2828,
      "涩": 2829,
      "涪": 2830,
      "涮": 2831,
      "涯": 2832,
      "液": 2833,
      "涵": 2834,
      "涸": 2835,
      "涿": 2836,
      "淀": 2837,
      "淄": 2838,
      "淅": 2839,
      "淆": 2840,
      "淇": 2841,
      "淋": 2842,
      "淌": 2843,
      "淑": 2844,
      "淖": 2845,
      "淘": 2846,
      "淙": 2847,
      "淞": 2848,
      "淡": 2849,
      "淤": 2850,
      "淦": 2851,
      "淫": 2852,
      "淬": 2853,
      "淮": 2854,
      "深": 2855,
      "淳": 2856,
      "混": 2857,
      "淹": 2858,
      "添": 2859,
      "淼": 2860,
      "清": 2861,
      "済": 2862,
      "渉": 2863,
      "渊": 2864,
      "渋": 2865,
      "渍": 2866,
      "渎": 2867,
      "渐": 2868,
      "渔": 2869,
      "渗": 2870,
      "渚": 2871,
      "渝": 2872,
      "渠": 2873,
      "渡": 2874,
      "渣": 2875,
      "渤": 2876,
      "渥": 2877,
      "温": 2878,
      "渭": 2879,
      "港": 2880,
      "渲": 2881,
      "渴": 2882,
      "游": 2883,
      "渺": 2884,
      "湃": 2885,
      "湄": 2886,
      "湍": 2887,
      "湖": 2888,
      "湘": 2889,
      "湛": 2890,
      "湟": 2891,
      "湫": 2892,
      "湮": 2893,
      "湳": 2894,
      "湾": 2895,
      "湿": 2896,
      "満": 2897,
      "溃": 2898,
      "溅": 2899,
      "溉": 2900,
      "溏": 2901,
      "源": 2902,
      "溜": 2903,
      "溟": 2904,
      "溢": 2905,
      "溥": 2906,
      "溧": 2907,
      "溪": 2908,
      "溯": 2909,
      "溱": 2910,
      "溴": 2911,
      "溶": 2912,
      "溺": 2913,
      "滁": 2914,
      "滂": 2915,
      "滇": 2916,
      "滋": 2917,
      "滑": 2918,
      "滓": 2919,
      "滔": 2920,
      "滕": 2921,
      "滘": 2922,
      "滚": 2923,
      "滝": 2924,
      "滞": 2925,
      "滟": 2926,
      "满": 2927,
      "滢": 2928,
      "滤": 2929,
      "滥": 2930,
      "滦": 2931,
      "滨": 2932,
      "滩": 2933,
      "滴": 2934,
      "漂": 2935,
      "漆": 2936,
      "漉": 2937,
      "漏": 2938,
      "漓": 2939,
      "演": 2940,
      "漕": 2941,
      "漠": 2942,
      "漩": 2943,
      "漪": 2944,
      "漫": 2945,
      "漯": 2946,
      "漱": 2947,
      "漳": 2948,
      "漾": 2949,
      "潆": 2950,
      "潇": 2951,
      "潋": 2952,
      "潍": 2953,
      "潘": 2954,
      "潜": 2955,
      "潞": 2956,
      "潟": 2957,
      "潢": 2958,
      "潦": 2959,
      "潭": 2960,
      "潮": 2961,
      "潴": 2962,
      "潺": 2963,
      "潼": 2964,
      "澄": 2965,
      "澈": 2966,
      "澍": 2967,
      "澎": 2968,
      "澜": 2969,
      "澡": 2970,
      "澧": 2971,
      "澳": 2972,
      "澹": 2973,
      "激": 2974,
      "濂": 2975,
      "濑": 2976,
      "濒": 2977,
      "濠": 2978,
      "濡": 2979,
      "濬": 2980,
      "濮": 2981,
      "濯": 2982,
      "瀑": 2983,
      "瀚": 2984,
      "瀛": 2985,
      "瀞": 2986,
      "瀬": 2987,
      "灌": 2988,
      "灏": 2989,
      "灞": 2990,
      "火": 2991,
      "灬": 2992,
      "灭": 2993,
      "灯": 2994,
      "灰": 2995,
      "灵": 2996,
      "灶": 2997,
      "灸": 2998,
      "灼": 2999,
      "灾": 3000,
      "灿": 3001,
      "炀": 3002,
      "炁": 3003,
      "炅": 3004,
      "炉": 3005,
      "炊": 3006,
      "炎": 3007,
      "炒": 3008,
      "炔": 3009,
      "炕": 3010,
      "炖": 3011,
      "炙": 3012,
      "炜": 3013,
      "炝": 3014,
      "炫": 3015,
      "炬": 3016,
      "炭": 3017,
      "炮": 3018,
      "炯": 3019,
      "炳": 3020,
      "炷": 3021,
      "炸": 3022,
      "点": 3023,
      "炼": 3024,
      "炽": 3025,
      "烁": 3026,
      "烂": 3027,
      "烃": 3028,
      "烈": 3029,
      "烊": 3030,
      "烘": 3031,
      "烙": 3032,
      "烛": 3033,
      "烟": 3034,
      "烤": 3035,
      "烦": 3036,
      "烧": 3037,
      "烨": 3038,
      "烩": 3039,
      "烫": 3040,
      "烬": 3041,
      "热": 3042,
      "烯": 3043,
      "烷": 3044,
      "烹": 3045,
      "烽": 3046,
      "焉": 3047,
      "焊": 3048,
      "焕": 3049,
      "焖": 3050,
      "焗": 3051,
      "焘": 3052,
      "焙": 3053,
      "焚": 3054,
      "焜": 3055,
      "焦": 3056,
      "焯": 3057,
      "焰": 3058,
      "焱": 3059,
      "然": 3060,
      "焼": 3061,
      "煅": 3062,
      "煊": 3063,
      "煌": 3064,
      "煎": 3065,
      "煖": 3066,
      "煜": 3067,
      "煞": 3068,
      "煤": 3069,
      "煦": 3070,
      "照": 3071,
      "煨": 3072,
      "煮": 3073,
      "煲": 3074,
      "煸": 3075,
      "煽": 3076,
      "熄": 3077,
      "熊": 3078,
      "熏": 3079,
      "熔": 3080,
      "熙": 3081,
      "熟": 3082,
      "熠": 3083,
      "熨": 3084,
      "熬": 3085,
      "熵": 3086,
      "熹": 3087,
      "燃": 3088,
      "燊": 3089,
      "燎": 3090,
      "燔": 3091,
      "燕": 3092,
      "燥": 3093,
      "燧": 3094,
      "燮": 3095,
      "燿": 3096,
      "爆": 3097,
      "爪": 3098,
      "爬": 3099,
      "爰": 3100,
      "爱": 3101,
      "爵": 3102,
      "父": 3103,
      "爷": 3104,
      "爸": 3105,
      "爹": 3106,
      "爻": 3107,
      "爽": 3108,
      "片": 3109,
      "版": 3110,
      "牌": 3111,
      "牍": 3112,
      "牒": 3113,
      "牙": 3114,
      "牛": 3115,
      "牝": 3116,
      "牟": 3117,
      "牠": 3118,
      "牡": 3119,
      "牢": 3120,
      "牦": 3121,
      "牧": 3122,
      "物": 3123,
      "牯": 3124,
      "牲": 3125,
      "牵": 3126,
      "特": 3127,
      "牺": 3128,
      "犀": 3129,
      "犁": 3130,
      "犊": 3131,
      "犍": 3132,
      "犒": 3133,
      "犬": 3134,
      "犯": 3135,
      "状": 3136,
      "犷": 3137,
      "犹": 3138,
      "狂": 3139,
      "狄": 3140,
      "狈": 3141,
      "狎": 3142,
      "狐": 3143,
      "狗": 3144,
      "狙": 3145,
      "狞": 3146,
      "狠": 3147,
      "狡": 3148,
      "狩": 3149,
      "独": 3150,
      "狭": 3151,
      "狮": 3152,
      "狱": 3153,
      "狸": 3154,
      "狼": 3155,
      "猎": 3156,
      "猖": 3157,
      "猗": 3158,
      "猛": 3159,
      "猜": 3160,
      "猝": 3161,
      "猥": 3162,
      "猩": 3163,
      "猪": 3164,
      "猫": 3165,
      "猬": 3166,
      "献": 3167,
      "猴": 3168,
      "猷": 3169,
      "猾": 3170,
      "猿": 3171,
      "獐": 3172,
      "獒": 3173,
      "獠": 3174,
      "獣": 3175,
      "獭": 3176,
      "獾": 3177,
      "玄": 3178,
      "率": 3179,
      "玉": 3180,
      "王": 3181,
      "玑": 3182,
      "玖": 3183,
      "玛": 3184,
      "玟": 3185,
      "玠": 3186,
      "玥": 3187,
      "玩": 3188,
      "玫": 3189,
      "玮": 3190,
      "环": 3191,
      "现": 3192,
      "玲": 3193,
      "玳": 3194,
      "玷": 3195,
      "玺": 3196,
      "玻": 3197,
      "珀": 3198,
      "珂": 3199,
      "珅": 3200,
      "珈": 3201,
      "珉": 3202,
      "珊": 3203,
      "珍": 3204,
      "珏": 3205,
      "珐": 3206,
      "珑": 3207,
      "珙": 3208,
      "珞": 3209,
      "珠": 3210,
      "珣": 3211,
      "珥": 3212,
      "珩": 3213,
      "珪": 3214,
      "班": 3215,
      "珮": 3216,
      "珲": 3217,
      "珺": 3218,
      "球": 3219,
      "琅": 3220,
      "理": 3221,
      "琇": 3222,
      "琉": 3223,
      "琊": 3224,
      "琍": 3225,
      "琏": 3226,
      "琐": 3227,
      "琛": 3228,
      "琢": 3229,
      "琥": 3230,
      "琦": 3231,
      "琨": 3232,
      "琪": 3233,
      "琬": 3234,
      "琮": 3235,
      "琰": 3236,
      "琳": 3237,
      "琴": 3238,
      "琵": 3239,
      "琶": 3240,
      "琼": 3241,
      "瑀": 3242,
      "瑁": 3243,
      "瑄": 3244,
      "瑕": 3245,
      "瑗": 3246,
      "瑙": 3247,
      "瑚": 3248,
      "瑛": 3249,
      "瑜": 3250,
      "瑞": 3251,
      "瑟": 3252,
      "瑠": 3253,
      "瑰": 3254,
      "瑶": 3255,
      "瑾": 3256,
      "璀": 3257,
      "璁": 3258,
      "璃": 3259,
      "璇": 3260,
      "璋": 3261,
      "璎": 3262,
      "璐": 3263,
      "璘": 3264,
      "璜": 3265,
      "璞": 3266,
      "璟": 3267,
      "璧": 3268,
      "璨": 3269,
      "璿": 3270,
      "瓒": 3271,
      "瓜": 3272,
      "瓢": 3273,
      "瓣": 3274,
      "瓤": 3275,
      "瓦": 3276,
      "瓮": 3277,
      "瓯": 3278,
      "瓴": 3279,
      "瓶": 3280,
      "瓷": 3281,
      "甄": 3282,
      "甑": 3283,
      "甘": 3284,
      "甙": 3285,
      "甚": 3286,
      "甜": 3287,
      "生": 3288,
      "甥": 3289,
      "用": 3290,
      "甩": 3291,
      "甫": 3292,
      "甬": 3293,
      "甭": 3294,
      "田": 3295,
      "由": 3296,
      "甲": 3297,
      "申": 3298,
      "电": 3299,
      "男": 3300,
      "甸": 3301,
      "町": 3302,
      "画": 3303,
      "甾": 3304,
      "畀": 3305,
      "畅": 3306,
      "畈": 3307,
      "界": 3308,
      "畏": 3309,
      "畑": 3310,
      "畔": 3311,
      "留": 3312,
      "畜": 3313,
      "略": 3314,
      "畦": 3315,
      "番": 3316,
      "畲": 3317,
      "畴": 3318,
      "畸": 3319,
      "畹": 3320,
      "畿": 3321,
      "疃": 3322,
      "疆": 3323,
      "疏": 3324,
      "疑": 3325,
      "疔": 3326,
      "疖": 3327,
      "疗": 3328,
      "疙": 3329,
      "疚": 3330,
      "疝": 3331,
      "疟": 3332,
      "疡": 3333,
      "疣": 3334,
      "疤": 3335,
      "疥": 3336,
      "疫": 3337,
      "疮": 3338,
      "疯": 3339,
      "疱": 3340,
      "疲": 3341,
      "疳": 3342,
      "疵": 3343,
      "疸": 3344,
      "疹": 3345,
      "疼": 3346,
      "疽": 3347,
      "疾": 3348,
      "痂": 3349,
      "病": 3350,
      "症": 3351,
      "痈": 3352,
      "痉": 3353,
      "痊": 3354,
      "痒": 3355,
      "痔": 3356,
      "痕": 3357,
      "痘": 3358,
      "痛": 3359,
      "痞": 3360,
      "痢": 3361,
      "痣": 3362,
      "痤": 3363,
      "痧": 3364,
      "痨": 3365,
      "痫": 3366,
      "痰": 3367,
      "痱": 3368,
      "痴": 3369,
      "痹": 3370,
      "痿": 3371,
      "瘀": 3372,
      "瘁": 3373,
      "瘘": 3374,
      "瘙": 3375,
      "瘟": 3376,
      "瘠": 3377,
      "瘢": 3378,
      "瘤": 3379,
      "瘦": 3380,
      "瘩": 3381,
      "瘪": 3382,
      "瘫": 3383,
      "瘴": 3384,
      "瘸": 3385,
      "瘾": 3386,
      "瘿": 3387,
      "癌": 3388,
      "癖": 3389,
      "癞": 3390,
      "癣": 3391,
      "癫": 3392,
      "癸": 3393,
      "発": 3394,
      "登": 3395,
      "白": 3396,
      "百": 3397,
      "皂": 3398,
      "的": 3399,
      "皆": 3400,
      "皇": 3401,
      "皈": 3402,
      "皋": 3403,
      "皎": 3404,
      "皑": 3405,
      "皓": 3406,
      "皖": 3407,
      "皙": 3408,
      "皮": 3409,
      "皱": 3410,
      "皴": 3411,
      "皿": 3412,
      "盂": 3413,
      "盅": 3414,
      "盆": 3415,
      "盈": 3416,
      "益": 3417,
      "盎": 3418,
      "盏": 3419,
      "盐": 3420,
      "监": 3421,
      "盒": 3422,
      "盔": 3423,
      "盖": 3424,
      "盗": 3425,
      "盘": 3426,
      "盛": 3427,
      "盟": 3428,
      "盥": 3429,
      "目": 3430,
      "盯": 3431,
      "盱": 3432,
      "盲": 3433,
      "直": 3434,
      "相": 3435,
      "盹": 3436,
      "盼": 3437,
      "盾": 3438,
      "省": 3439,
      "眉": 3440,
      "看": 3441,
      "県": 3442,
      "真": 3443,
      "眠": 3444,
      "眦": 3445,
      "眨": 3446,
      "眩": 3447,
      "眯": 3448,
      "眶": 3449,
      "眷": 3450,
      "眸": 3451,
      "眺": 3452,
      "眼": 3453,
      "着": 3454,
      "睁": 3455,
      "睇": 3456,
      "睐": 3457,
      "睑": 3458,
      "睛": 3459,
      "睡": 3460,
      "睢": 3461,
      "督": 3462,
      "睥": 3463,
      "睦": 3464,
      "睨": 3465,
      "睫": 3466,
      "睬": 3467,
      "睹": 3468,
      "睽": 3469,
      "睾": 3470,
      "睿": 3471,
      "瞄": 3472,
      "瞅": 3473,
      "瞋": 3474,
      "瞎": 3475,
      "瞑": 3476,
      "瞒": 3477,
      "瞟": 3478,
      "瞠": 3479,
      "瞥": 3480,
      "瞧": 3481,
      "瞩": 3482,
      "瞪": 3483,
      "瞬": 3484,
      "瞭": 3485,
      "瞰": 3486,
      "瞳": 3487,
      "瞻": 3488,
      "瞿": 3489,
      "矗": 3490,
      "矛": 3491,
      "矜": 3492,
      "矢": 3493,
      "矣": 3494,
      "知": 3495,
      "矩": 3496,
      "矫": 3497,
      "短": 3498,
      "矮": 3499,
      "石": 3500,
      "矶": 3501,
      "矽": 3502,
      "矾": 3503,
      "矿": 3504,
      "码": 3505,
      "砂": 3506,
      "砌": 3507,
      "砍": 3508,
      "砒": 3509,
      "研": 3510,
      "砖": 3511,
      "砚": 3512,
      "砣": 3513,
      "砥": 3514,
      "砧": 3515,
      "砭": 3516,
      "砰": 3517,
      "砲": 3518,
      "破": 3519,
      "砷": 3520,
      "砸": 3521,
      "砺": 3522,
      "砼": 3523,
      "砾": 3524,
      "础": 3525,
      "硅": 3526,
      "硐": 3527,
      "硒": 3528,
      "硕": 3529,
      "硝": 3530,
      "硫": 3531,
      "硬": 3532,
      "确": 3533,
      "硼": 3534,
      "碁": 3535,
      "碇": 3536,
      "碉": 3537,
      "碌": 3538,
      "碍": 3539,
      "碎": 3540,
      "碑": 3541,
      "碓": 3542,
      "碗": 3543,
      "碘": 3544,
      "碚": 3545,
      "碛": 3546,
      "碟": 3547,
      "碣": 3548,
      "碧": 3549,
      "碰": 3550,
      "碱": 3551,
      "碳": 3552,
      "碴": 3553,
      "碾": 3554,
      "磁": 3555,
      "磅": 3556,
      "磊": 3557,
      "磋": 3558,
      "磐": 3559,
      "磕": 3560,
      "磡": 3561,
      "磨": 3562,
      "磬": 3563,
      "磷": 3564,
      "磺": 3565,
      "礁": 3566,
      "示": 3567,
      "礼": 3568,
      "社": 3569,
      "祀": 3570,
      "祁": 3571,
      "祂": 3572,
      "祇": 3573,
      "祈": 3574,
      "祉": 3575,
      "祎": 3576,
      "祐": 3577,
      "祖": 3578,
      "祗": 3579,
      "祚": 3580,
      "祛": 3581,
      "祜": 3582,
      "祝": 3583,
      "神": 3584,
      "祟": 3585,
      "祠": 3586,
      "祢": 3587,
      "祥": 3588,
      "票": 3589,
      "祭": 3590,
      "祯": 3591,
      "祷": 3592,
      "祸": 3593,
      "祺": 3594,
      "禀": 3595,
      "禁": 3596,
      "禄": 3597,
      "禅": 3598,
      "福": 3599,
      "禛": 3600,
      "禧": 3601,
      "禹": 3602,
      "禺": 3603,
      "离": 3604,
      "禽": 3605,
      "禾": 3606,
      "秀": 3607,
      "私": 3608,
      "秃": 3609,
      "秆": 3610,
      "秉": 3611,
      "秋": 3612,
      "种": 3613,
      "科": 3614,
      "秒": 3615,
      "秘": 3616,
      "租": 3617,
      "秣": 3618,
      "秤": 3619,
      "秦": 3620,
      "秧": 3621,
      "秩": 3622,
      "积": 3623,
      "称": 3624,
      "秸": 3625,
      "移": 3626,
      "秽": 3627,
      "稀": 3628,
      "程": 3629,
      "稍": 3630,
      "税": 3631,
      "稔": 3632,
      "稗": 3633,
      "稚": 3634,
      "稠": 3635,
      "稣": 3636,
      "稲": 3637,
      "稳": 3638,
      "稷": 3639,
      "稹": 3640,
      "稻": 3641,
      "稼": 3642,
      "稽": 3643,
      "稿": 3644,
      "穂": 3645,
      "穆": 3646,
      "穗": 3647,
      "穴": 3648,
      "究": 3649,
      "穷": 3650,
      "穹": 3651,
      "空": 3652,
      "穿": 3653,
      "突": 3654,
      "窃": 3655,
      "窄": 3656,
      "窈": 3657,
      "窍": 3658,
      "窑": 3659,
      "窒": 3660,
      "窓": 3661,
      "窖": 3662,
      "窗": 3663,
      "窘": 3664,
      "窜": 3665,
      "窝": 3666,
      "窟": 3667,
      "窠": 3668,
      "窥": 3669,
      "窦": 3670,
      "窨": 3671,
      "窿": 3672,
      "立": 3673,
      "竖": 3674,
      "站": 3675,
      "竜": 3676,
      "竞": 3677,
      "竟": 3678,
      "章": 3679,
      "竣": 3680,
      "童": 3681,
      "竭": 3682,
      "端": 3683,
      "竹": 3684,
      "竺": 3685,
      "竽": 3686,
      "竿": 3687,
      "笃": 3688,
      "笆": 3689,
      "笈": 3690,
      "笋": 3691,
      "笏": 3692,
      "笑": 3693,
      "笔": 3694,
      "笙": 3695,
      "笛": 3696,
      "笞": 3697,
      "笠": 3698,
      "符": 3699,
      "笨": 3700,
      "第": 3701,
      "笹": 3702,
      "笺": 3703,
      "笼": 3704,
      "等": 3705,
      "筋": 3706,
      "筏": 3707,
      "筐": 3708,
      "筑": 3709,
      "筒": 3710,
      "答": 3711,
      "策": 3712,
      "筛": 3713,
      "筝": 3714,
      "筠": 3715,
      "筱": 3716,
      "筲": 3717,
      "筵": 3718,
      "筷": 3719,
      "筹": 3720,
      "签": 3721,
      "简": 3722,
      "箍": 3723,
      "箐": 3724,
      "箔": 3725,
      "箕": 3726,
      "算": 3727,
      "箝": 3728,
      "管": 3729,
      "箩": 3730,
      "箫": 3731,
      "箭": 3732,
      "箱": 3733,
      "箴": 3734,
      "箸": 3735,
      "篁": 3736,
      "篆": 3737,
      "篇": 3738,
      "篓": 3739,
      "篙": 3740,
      "篝": 3741,
      "篡": 3742,
      "篪": 3743,
      "篮": 3744,
      "篱": 3745,
      "篷": 3746,
      "簇": 3747,
      "簋": 3748,
      "簧": 3749,
      "簪": 3750,
      "簸": 3751,
      "簿": 3752,
      "籁": 3753,
      "籍": 3754,
      "米": 3755,
      "类": 3756,
      "籼": 3757,
      "籽": 3758,
      "粄": 3759,
      "粉": 3760,
      "粑": 3761,
      "粒": 3762,
      "粕": 3763,
      "粗": 3764,
      "粘": 3765,
      "粟": 3766,
      "粤": 3767,
      "粥": 3768,
      "粧": 3769,
      "粪": 3770,
      "粮": 3771,
      "粱": 3772,
      "粲": 3773,
      "粳": 3774,
      "粹": 3775,
      "粼": 3776,
      "粽": 3777,
      "精": 3778,
      "粿": 3779,
      "糅": 3780,
      "糊": 3781,
      "糍": 3782,
      "糕": 3783,
      "糖": 3784,
      "糗": 3785,
      "糙": 3786,
      "糜": 3787,
      "糟": 3788,
      "糠": 3789,
      "糬": 3790,
      "糯": 3791,
      "糸": 3792,
      "系": 3793,
      "紊": 3794,
      "素": 3795,
      "索": 3796,
      "紧": 3797,
      "紫": 3798,
      "累": 3799,
      "経": 3800,
      "絮": 3801,
      "絵": 3802,
      "継": 3803,
      "続": 3804,
      "綦": 3805,
      "総": 3806,
      "繁": 3807,
      "繇": 3808,
      "繋": 3809,
      "纂": 3810,
      "纠": 3811,
      "红": 3812,
      "纣": 3813,
      "纤": 3814,
      "约": 3815,
      "级": 3816,
      "纨": 3817,
      "纪": 3818,
      "纫": 3819,
      "纬": 3820,
      "纭": 3821,
      "纯": 3822,
      "纱": 3823,
      "纲": 3824,
      "纳": 3825,
      "纵": 3826,
      "纶": 3827,
      "纷": 3828,
      "纸": 3829,
      "纹": 3830,
      "纺": 3831,
      "纽": 3832,
      "纾": 3833,
      "线": 3834,
      "绀": 3835,
      "练": 3836,
      "组": 3837,
      "绅": 3838,
      "细": 3839,
      "织": 3840,
      "终": 3841,
      "绊": 3842,
      "绍": 3843,
      "绎": 3844,
      "经": 3845,
      "绑": 3846,
      "绒": 3847,
      "结": 3848,
      "绕": 3849,
      "绘": 3850,
      "给": 3851,
      "绚": 3852,
      "绛": 3853,
      "络": 3854,
      "绝": 3855,
      "绞": 3856,
      "统": 3857,
      "绡": 3858,
      "绢": 3859,
      "绣": 3860,
      "绥": 3861,
      "绦": 3862,
      "继": 3863,
      "绩": 3864,
      "绪": 3865,
      "绫": 3866,
      "续": 3867,
      "绮": 3868,
      "绯": 3869,
      "绰": 3870,
      "绳": 3871,
      "维": 3872,
      "绵": 3873,
      "绶": 3874,
      "绷": 3875,
      "绸": 3876,
      "绻": 3877,
      "综": 3878,
      "绽": 3879,
      "绾": 3880,
      "绿": 3881,
      "缀": 3882,
      "缄": 3883,
      "缅": 3884,
      "缆": 3885,
      "缇": 3886,
      "缈": 3887,
      "缉": 3888,
      "缎": 3889,
      "缓": 3890,
      "缔": 3891,
      "缕": 3892,
      "编": 3893,
      "缘": 3894,
      "缙": 3895,
      "缚": 3896,
      "缜": 3897,
      "缝": 3898,
      "缠": 3899,
      "缢": 3900,
      "缤": 3901,
      "缥": 3902,
      "缨": 3903,
      "缩": 3904,
      "缪": 3905,
      "缭": 3906,
      "缮": 3907,
      "缰": 3908,
      "缴": 3909,
      "缸": 3910,
      "缺": 3911,
      "罂": 3912,
      "罄": 3913,
      "罐": 3914,
      "网": 3915,
      "罔": 3916,
      "罕": 3917,
      "罗": 3918,
      "罚": 3919,
      "罡": 3920,
      "罢": 3921,
      "罩": 3922,
      "罪": 3923,
      "置": 3924,
      "署": 3925,
      "罹": 3926,
      "羁": 3927,
      "羊": 3928,
      "羌": 3929,
      "美": 3930,
      "羔": 3931,
      "羚": 3932,
      "羞": 3933,
      "羟": 3934,
      "羡": 3935,
      "群": 3936,
      "羧": 3937,
      "羯": 3938,
      "羲": 3939,
      "羸": 3940,
      "羹": 3941,
      "羽": 3942,
      "羿": 3943,
      "翁": 3944,
      "翅": 3945,
      "翊": 3946,
      "翌": 3947,
      "翎": 3948,
      "翔": 3949,
      "翘": 3950,
      "翟": 3951,
      "翠": 3952,
      "翡": 3953,
      "翦": 3954,
      "翩": 3955,
      "翰": 3956,
      "翱": 3957,
      "翳": 3958,
      "翻": 3959,
      "翼": 3960,
      "耀": 3961,
      "老": 3962,
      "考": 3963,
      "耄": 3964,
      "者": 3965,
      "耆": 3966,
      "耋": 3967,
      "而": 3968,
      "耍": 3969,
      "耐": 3970,
      "耒": 3971,
      "耕": 3972,
      "耗": 3973,
      "耘": 3974,
      "耙": 3975,
      "耦": 3976,
      "耨": 3977,
      "耳": 3978,
      "耶": 3979,
      "耷": 3980,
      "耸": 3981,
      "耻": 3982,
      "耽": 3983,
      "耿": 3984,
      "聂": 3985,
      "聆": 3986,
      "聊": 3987,
      "聋": 3988,
      "职": 3989,
      "聒": 3990,
      "联": 3991,
      "聘": 3992,
      "聚": 3993,
      "聪": 3994,
      "聴": 3995,
      "聿": 3996,
      "肃": 3997,
      "肄": 3998,
      "肆": 3999,
      "肇": 4000,
      "肉": 4001,
      "肋": 4002,
      "肌": 4003,
      "肓": 4004,
      "肖": 4005,
      "肘": 4006,
      "肚": 4007,
      "肛": 4008,
      "肝": 4009,
      "肠": 4010,
      "股": 4011,
      "肢": 4012,
      "肤": 4013,
      "肥": 4014,
      "肩": 4015,
      "肪": 4016,
      "肯": 4017,
      "肱": 4018,
      "育": 4019,
      "肴": 4020,
      "肺": 4021,
      "肽": 4022,
      "肾": 4023,
      "肿": 4024,
      "胀": 4025,
      "胁": 4026,
      "胃": 4027,
      "胄": 4028,
      "胆": 4029,
      "背": 4030,
      "胍": 4031,
      "胎": 4032,
      "胖": 4033,
      "胚": 4034,
      "胛": 4035,
      "胜": 4036,
      "胝": 4037,
      "胞": 4038,
      "胡": 4039,
      "胤": 4040,
      "胥": 4041,
      "胧": 4042,
      "胪": 4043,
      "胫": 4044,
      "胭": 4045,
      "胯": 4046,
      "胰": 4047,
      "胱": 4048,
      "胳": 4049,
      "胴": 4050,
      "胶": 4051,
      "胸": 4052,
      "胺": 4053,
      "能": 4054,
      "脂": 4055,
      "脆": 4056,
      "脇": 4057,
      "脉": 4058,
      "脊": 4059,
      "脍": 4060,
      "脏": 4061,
      "脐": 4062,
      "脑": 4063,
      "脓": 4064,
      "脖": 4065,
      "脘": 4066,
      "脚": 4067,
      "脯": 4068,
      "脱": 4069,
      "脲": 4070,
      "脸": 4071,
      "脾": 4072,
      "腆": 4073,
      "腈": 4074,
      "腊": 4075,
      "腋": 4076,
      "腌": 4077,
      "腐": 4078,
      "腑": 4079,
      "腓": 4080,
      "腔": 4081,
      "腕": 4082,
      "腥": 4083,
      "腩": 4084,
      "腭": 4085,
      "腮": 4086,
      "腰": 4087,
      "腱": 4088,
      "腴": 4089,
      "腹": 4090,
      "腺": 4091,
      "腻": 4092,
      "腾": 4093,
      "腿": 4094,
      "膀": 4095,
      "膈": 4096,
      "膊": 4097,
      "膏": 4098,
      "膑": 4099,
      "膘": 4100,
      "膛": 4101,
      "膜": 4102,
      "膝": 4103,
      "膦": 4104,
      "膨": 4105,
      "膳": 4106,
      "膺": 4107,
      "膻": 4108,
      "臀": 4109,
      "臂": 4110,
      "臆": 4111,
      "臊": 4112,
      "臣": 4113,
      "臧": 4114,
      "自": 4115,
      "臬": 4116,
      "臭": 4117,
      "至": 4118,
      "致": 4119,
      "臻": 4120,
      "臼": 4121,
      "臾": 4122,
      "舀": 4123,
      "舂": 4124,
      "舅": 4125,
      "舆": 4126,
      "舌": 4127,
      "舍": 4128,
      "舎": 4129,
      "舐": 4130,
      "舒": 4131,
      "舔": 4132,
      "舖": 4133,
      "舛": 4134,
      "舜": 4135,
      "舞": 4136,
      "舟": 4137,
      "航": 4138,
      "舫": 4139,
      "般": 4140,
      "舰": 4141,
      "舱": 4142,
      "舵": 4143,
      "舶": 4144,
      "舷": 4145,
      "舸": 4146,
      "船": 4147,
      "舺": 4148,
      "艇": 4149,
      "艋": 4150,
      "艘": 4151,
      "艮": 4152,
      "良": 4153,
      "艰": 4154,
      "色": 4155,
      "艳": 4156,
      "艹": 4157,
      "艺": 4158,
      "艾": 4159,
      "节": 4160,
      "芃": 4161,
      "芈": 4162,
      "芊": 4163,
      "芋": 4164,
      "芍": 4165,
      "芎": 4166,
      "芒": 4167,
      "芙": 4168,
      "芜": 4169,
      "芝": 4170,
      "芡": 4171,
      "芥": 4172,
      "芦": 4173,
      "芩": 4174,
      "芪": 4175,
      "芫": 4176,
      "芬": 4177,
      "芭": 4178,
      "芮": 4179,
      "芯": 4180,
      "花": 4181,
      "芳": 4182,
      "芷": 4183,
      "芸": 4184,
      "芹": 4185,
      "芽": 4186,
      "芾": 4187,
      "苄": 4188,
      "苇": 4189,
      "苋": 4190,
      "苍": 4191,
      "苏": 4192,
      "苑": 4193,
      "苒": 4194,
      "苓": 4195,
      "苔": 4196,
      "苕": 4197,
      "苗": 4198,
      "苛": 4199,
      "苜": 4200,
      "苞": 4201,
      "苟": 4202,
      "苡": 4203,
      "苣": 4204,
      "若": 4205,
      "苦": 4206,
      "苫": 4207,
      "苯": 4208,
      "英": 4209,
      "苴": 4210,
      "苷": 4211,
      "苹": 4212,
      "苻": 4213,
      "茁": 4214,
      "茂": 4215,
      "范": 4216,
      "茄": 4217,
      "茅": 4218,
      "茉": 4219,
      "茎": 4220,
      "茏": 4221,
      "茗": 4222,
      "茜": 4223,
      "茧": 4224,
      "茨": 4225,
      "茫": 4226,
      "茬": 4227,
      "茭": 4228,
      "茯": 4229,
      "茱": 4230,
      "茴": 4231,
      "茵": 4232,
      "茶": 4233,
      "茸": 4234,
      "茹": 4235,
      "荀": 4236,
      "荃": 4237,
      "荆": 4238,
      "草": 4239,
      "荏": 4240,
      "荐": 4241,
      "荒": 4242,
      "荔": 4243,
      "荖": 4244,
      "荘": 4245,
      "荚": 4246,
      "荞": 4247,
      "荟": 4248,
      "荠": 4249,
      "荡": 4250,
      "荣": 4251,
      "荤": 4252,
      "荥": 4253,
      "荧": 4254,
      "荨": 4255,
      "荪": 4256,
      "荫": 4257,
      "药": 4258,
      "荳": 4259,
      "荷": 4260,
      "荻": 4261,
      "荼": 4262,
      "荽": 4263,
      "莅": 4264,
      "莆": 4265,
      "莉": 4266,
      "莎": 4267,
      "莒": 4268,
      "莓": 4269,
      "莘": 4270,
      "莞": 4271,
      "莠": 4272,
      "莪": 4273,
      "莫": 4274,
      "莱": 4275,
      "莲": 4276,
      "获": 4277,
      "莹": 4278,
      "莺": 4279,
      "莽": 4280,
      "菀": 4281,
      "菁": 4282,
      "菅": 4283,
      "菇": 4284,
      "菈": 4285,
      "菊": 4286,
      "菌": 4287,
      "菏": 4288,
      "菓": 4289,
      "菖": 4290,
      "菘": 4291,
      "菜": 4292,
      "菟": 4293,
      "菠": 4294,
      "菡": 4295,
      "菩": 4296,
      "菱": 4297,
      "菲": 4298,
      "菽": 4299,
      "萁": 4300,
      "萃": 4301,
      "萄": 4302,
      "萋": 4303,
      "萌": 4304,
      "萍": 4305,
      "萎": 4306,
      "萘": 4307,
      "萝": 4308,
      "萤": 4309,
      "营": 4310,
      "萦": 4311,
      "萧": 4312,
      "萨": 4313,
      "萩": 4314,
      "萱": 4315,
      "萸": 4316,
      "萼": 4317,
      "落": 4318,
      "葆": 4319,
      "著": 4320,
      "葛": 4321,
      "葡": 4322,
      "董": 4323,
      "葩": 4324,
      "葫": 4325,
      "葬": 4326,
      "葭": 4327,
      "葱": 4328,
      "葳": 4329,
      "葵": 4330,
      "葶": 4331,
      "葺": 4332,
      "蒂": 4333,
      "蒋": 4334,
      "蒙": 4335,
      "蒜": 4336,
      "蒟": 4337,
      "蒨": 4338,
      "蒲": 4339,
      "蒸": 4340,
      "蒹": 4341,
      "蒻": 4342,
      "蒿": 4343,
      "蓁": 4344,
      "蓄": 4345,
      "蓉": 4346,
      "蓑": 4347,
      "蓓": 4348,
      "蓖": 4349,
      "蓝": 4350,
      "蓟": 4351,
      "蓦": 4352,
      "蓬": 4353,
      "蓼": 4354,
      "蓿": 4355,
      "蔑": 4356,
      "蔓": 4357,
      "蔗": 4358,
      "蔚": 4359,
      "蔡": 4360,
      "蔫": 4361,
      "蔬": 4362,
      "蔵": 4363,
      "蔷": 4364,
      "蔺": 4365,
      "蔻": 4366,
      "蔼": 4367,
      "蔽": 4368,
      "蕃": 4369,
      "蕈": 4370,
      "蕉": 4371,
      "蕊": 4372,
      "蕙": 4373,
      "蕤": 4374,
      "蕨": 4375,
      "蕲": 4376,
      "蕴": 4377,
      "蕻": 4378,
      "蕾": 4379,
      "薄": 4380,
      "薅": 4381,
      "薇": 4382,
      "薏": 4383,
      "薙": 4384,
      "薛": 4385,
      "薨": 4386,
      "薪": 4387,
      "薬": 4388,
      "薯": 4389,
      "薰": 4390,
      "藉": 4391,
      "藏": 4392,
      "藐": 4393,
      "藓": 4394,
      "藕": 4395,
      "藜": 4396,
      "藤": 4397,
      "藩": 4398,
      "藻": 4399,
      "藿": 4400,
      "蘑": 4401,
      "蘖": 4402,
      "蘸": 4403,
      "蘼": 4404,
      "虎": 4405,
      "虏": 4406,
      "虐": 4407,
      "虑": 4408,
      "虔": 4409,
      "虚": 4410,
      "虞": 4411,
      "虢": 4412,
      "虫": 4413,
      "虬": 4414,
      "虱": 4415,
      "虹": 4416,
      "虻": 4417,
      "虽": 4418,
      "虾": 4419,
      "蚀": 4420,
      "蚁": 4421,
      "蚂": 4422,
      "蚊": 4423,
      "蚌": 4424,
      "蚓": 4425,
      "蚕": 4426,
      "蚜": 4427,
      "蚝": 4428,
      "蚣": 4429,
      "蚤": 4430,
      "蚧": 4431,
      "蚩": 4432,
      "蚱": 4433,
      "蚵": 4434,
      "蛀": 4435,
      "蛆": 4436,
      "蛇": 4437,
      "蛊": 4438,
      "蛋": 4439,
      "蛎": 4440,
      "蛔": 4441,
      "蛙": 4442,
      "蛛": 4443,
      "蛟": 4444,
      "蛤": 4445,
      "蛭": 4446,
      "蛮": 4447,
      "蛰": 4448,
      "蛳": 4449,
      "蛹": 4450,
      "蛾": 4451,
      "蜀": 4452,
      "蜂": 4453,
      "蜃": 4454,
      "蜇": 4455,
      "蜈": 4456,
      "蜊": 4457,
      "蜒": 4458,
      "蜓": 4459,
      "蜕": 4460,
      "蜗": 4461,
      "蜘": 4462,
      "蜚": 4463,
      "蜜": 4464,
      "蜡": 4465,
      "蜥": 4466,
      "蜱": 4467,
      "蜷": 4468,
      "蜻": 4469,
      "蜿": 4470,
      "蝇": 4471,
      "蝉": 4472,
      "蝎": 4473,
      "蝗": 4474,
      "蝙": 4475,
      "蝠": 4476,
      "蝴": 4477,
      "蝶": 4478,
      "蝽": 4479,
      "螂": 4480,
      "融": 4481,
      "螟": 4482,
      "螨": 4483,
      "螭": 4484,
      "螯": 4485,
      "螳": 4486,
      "螺": 4487,
      "蟀": 4488,
      "蟆": 4489,
      "蟋": 4490,
      "蟑": 4491,
      "蟒": 4492,
      "蟠": 4493,
      "蟹": 4494,
      "蟾": 4495,
      "蠕": 4496,
      "蠡": 4497,
      "蠢": 4498,
      "蠹": 4499,
      "血": 4500,
      "衄": 4501,
      "衅": 4502,
      "行": 4503,
      "衍": 4504,
      "衔": 4505,
      "街": 4506,
      "衙": 4507,
      "衞": 4508,
      "衡": 4509,
      "衢": 4510,
      "衣": 4511,
      "补": 4512,
      "表": 4513,
      "衩": 4514,
      "衫": 4515,
      "衬": 4516,
      "衮": 4517,
      "衰": 4518,
      "衲": 4519,
      "衷": 4520,
      "衾": 4521,
      "衿": 4522,
      "袁": 4523,
      "袂": 4524,
      "袄": 4525,
      "袅": 4526,
      "袋": 4527,
      "袍": 4528,
      "袒": 4529,
      "袖": 4530,
      "袜": 4531,
      "袤": 4532,
      "袪": 4533,
      "被": 4534,
      "袭": 4535,
      "袱": 4536,
      "裁": 4537,
      "裂": 4538,
      "装": 4539,
      "裆": 4540,
      "裔": 4541,
      "裕": 4542,
      "裘": 4543,
      "裙": 4544,
      "裟": 4545,
      "裤": 4546,
      "裨": 4547,
      "裱": 4548,
      "裳": 4549,
      "裴": 4550,
      "裸": 4551,
      "裹": 4552,
      "裾": 4553,
      "褂": 4554,
      "褐": 4555,
      "褒": 4556,
      "褔": 4557,
      "褚": 4558,
      "褥": 4559,
      "褪": 4560,
      "褫": 4561,
      "褶": 4562,
      "襄": 4563,
      "襟": 4564,
      "西": 4565,
      "要": 4566,
      "覃": 4567,
      "覆": 4568,
      "覚": 4569,
      "観": 4570,
      "见": 4571,
      "观": 4572,
      "规": 4573,
      "觅": 4574,
      "视": 4575,
      "览": 4576,
      "觉": 4577,
      "觊": 4578,
      "觐": 4579,
      "觑": 4580,
      "角": 4581,
      "觞": 4582,
      "解": 4583,
      "觥": 4584,
      "触": 4585,
      "言": 4586,
      "訳": 4587,
      "詹": 4588,
      "誉": 4589,
      "誓": 4590,
      "読": 4591,
      "警": 4592,
      "譬": 4593,
      "计": 4594,
      "订": 4595,
      "认": 4596,
      "讥": 4597,
      "讨": 4598,
      "让": 4599,
      "讪": 4600,
      "讫": 4601,
      "训": 4602,
      "议": 4603,
      "讯": 4604,
      "记": 4605,
      "讲": 4606,
      "讳": 4607,
      "讴": 4608,
      "讶": 4609,
      "讷": 4610,
      "许": 4611,
      "讹": 4612,
      "论": 4613,
      "讼": 4614,
      "讽": 4615,
      "设": 4616,
      "访": 4617,
      "诀": 4618,
      "证": 4619,
      "诃": 4620,
      "评": 4621,
      "诅": 4622,
      "识": 4623,
      "诈": 4624,
      "诉": 4625,
      "诊": 4626,
      "诋": 4627,
      "词": 4628,
      "诏": 4629,
      "译": 4630,
      "试": 4631,
      "诗": 4632,
      "诘": 4633,
      "诙": 4634,
      "诚": 4635,
      "诛": 4636,
      "话": 4637,
      "诞": 4638,
      "诟": 4639,
      "诠": 4640,
      "诡": 4641,
      "询": 4642,
      "诣": 4643,
      "诤": 4644,
      "该": 4645,
      "详": 4646,
      "诧": 4647,
      "诩": 4648,
      "诫": 4649,
      "诬": 4650,
      "语": 4651,
      "误": 4652,
      "诰": 4653,
      "诱": 4654,
      "诲": 4655,
      "说": 4656,
      "诵": 4657,
      "诶": 4658,
      "请": 4659,
      "诸": 4660,
      "诺": 4661,
      "读": 4662,
      "诽": 4663,
      "课": 4664,
      "谀": 4665,
      "谁": 4666,
      "调": 4667,
      "谄": 4668,
      "谅": 4669,
      "谆": 4670,
      "谈": 4671,
      "谊": 4672,
      "谋": 4673,
      "谌": 4674,
      "谍": 4675,
      "谎": 4676,
      "谏": 4677,
      "谐": 4678,
      "谑": 4679,
      "谒": 4680,
      "谓": 4681,
      "谔": 4682,
      "谕": 4683,
      "谗": 4684,
      "谘": 4685,
      "谙": 4686,
      "谚": 4687,
      "谛": 4688,
      "谜": 4689,
      "谟": 4690,
      "谢": 4691,
      "谣": 4692,
      "谤": 4693,
      "谥": 4694,
      "谦": 4695,
      "谧": 4696,
      "谨": 4697,
      "谩": 4698,
      "谪": 4699,
      "谬": 4700,
      "谭": 4701,
      "谯": 4702,
      "谱": 4703,
      "谲": 4704,
      "谴": 4705,
      "谶": 4706,
      "谷": 4707,
      "豁": 4708,
      "豆": 4709,
      "豉": 4710,
      "豊": 4711,
      "豌": 4712,
      "豚": 4713,
      "象": 4714,
      "豢": 4715,
      "豪": 4716,
      "豫": 4717,
      "豹": 4718,
      "豺": 4719,
      "貂": 4720,
      "貌": 4721,
      "貔": 4722,
      "貘": 4723,
      "贝": 4724,
      "贞": 4725,
      "负": 4726,
      "贡": 4727,
      "财": 4728,
      "责": 4729,
      "贤": 4730,
      "败": 4731,
      "账": 4732,
      "货": 4733,
      "质": 4734,
      "贩": 4735,
      "贪": 4736,
      "贫": 4737,
      "贬": 4738,
      "购": 4739,
      "贮": 4740,
      "贯": 4741,
      "贰": 4742,
      "贱": 4743,
      "贲": 4744,
      "贴": 4745,
      "贵": 4746,
      "贷": 4747,
      "贸": 4748,
      "费": 4749,
      "贺": 4750,
      "贻": 4751,
      "贼": 4752,
      "贾": 4753,
      "贿": 4754,
      "赁": 4755,
      "赂": 4756,
      "赃": 4757,
      "资": 4758,
      "赅": 4759,
      "赈": 4760,
      "赊": 4761,
      "赋": 4762,
      "赌": 4763,
      "赎": 4764,
      "赏": 4765,
      "赐": 4766,
      "赓": 4767,
      "赔": 4768,
      "赖": 4769,
      "赘": 4770,
      "赚": 4771,
      "赛": 4772,
      "赝": 4773,
      "赞": 4774,
      "赟": 4775,
      "赠": 4776,
      "赡": 4777,
      "赢": 4778,
      "赣": 4779,
      "赤": 4780,
      "赦": 4781,
      "赧": 4782,
      "赫": 4783,
      "赭": 4784,
      "走": 4785,
      "赳": 4786,
      "赴": 4787,
      "赵": 4788,
      "赶": 4789,
      "起": 4790,
      "趁": 4791,
      "超": 4792,
      "越": 4793,
      "趋": 4794,
      "趟": 4795,
      "趣": 4796,
      "足": 4797,
      "趴": 4798,
      "趸": 4799,
      "趺": 4800,
      "趾": 4801,
      "跃": 4802,
      "跄": 4803,
      "跆": 4804,
      "跋": 4805,
      "跌": 4806,
      "跎": 4807,
      "跑": 4808,
      "跖": 4809,
      "跗": 4810,
      "跛": 4811,
      "距": 4812,
      "跟": 4813,
      "跤": 4814,
      "跨": 4815,
      "跪": 4816,
      "路": 4817,
      "跳": 4818,
      "践": 4819,
      "跷": 4820,
      "跺": 4821,
      "跻": 4822,
      "踊": 4823,
      "踏": 4824,
      "踝": 4825,
      "踞": 4826,
      "踢": 4827,
      "踩": 4828,
      "踪": 4829,
      "踮": 4830,
      "踱": 4831,
      "踵": 4832,
      "踹": 4833,
      "蹂": 4834,
      "蹄": 4835,
      "蹇": 4836,
      "蹈": 4837,
      "蹉": 4838,
      "蹊": 4839,
      "蹋": 4840,
      "蹑": 4841,
      "蹙": 4842,
      "蹦": 4843,
      "蹩": 4844,
      "蹬": 4845,
      "蹭": 4846,
      "蹲": 4847,
      "蹴": 4848,
      "蹶": 4849,
      "蹼": 4850,
      "蹿": 4851,
      "躁": 4852,
      "身": 4853,
      "躬": 4854,
      "躯": 4855,
      "躲": 4856,
      "躺": 4857,
      "転": 4858,
      "车": 4859,
      "轧": 4860,
      "轨": 4861,
      "轩": 4862,
      "转": 4863,
      "轭": 4864,
      "轮": 4865,
      "软": 4866,
      "轰": 4867,
      "轲": 4868,
      "轴": 4869,
      "轶": 4870,
      "轸": 4871,
      "轻": 4872,
      "轼": 4873,
      "载": 4874,
      "轿": 4875,
      "较": 4876,
      "辄": 4877,
      "辅": 4878,
      "辆": 4879,
      "辇": 4880,
      "辈": 4881,
      "辉": 4882,
      "辊": 4883,
      "辍": 4884,
      "辐": 4885,
      "辑": 4886,
      "输": 4887,
      "辕": 4888,
      "辖": 4889,
      "辗": 4890,
      "辘": 4891,
      "辙": 4892,
      "辛": 4893,
      "辜": 4894,
      "辞": 4895,
      "辟": 4896,
      "辣": 4897,
      "辨": 4898,
      "辩": 4899,
      "辫": 4900,
      "辰": 4901,
      "辱": 4902,
      "边": 4903,
      "辺": 4904,
      "辻": 4905,
      "込": 4906,
      "辽": 4907,
      "达": 4908,
      "迁": 4909,
      "迂": 4910,
      "迄": 4911,
      "迅": 4912,
      "过": 4913,
      "迈": 4914,
      "迎": 4915,
      "运": 4916,
      "近": 4917,
      "返": 4918,
      "还": 4919,
      "这": 4920,
      "进": 4921,
      "远": 4922,
      "违": 4923,
      "连": 4924,
      "迟": 4925,
      "迢": 4926,
      "迤": 4927,
      "迥": 4928,
      "迦": 4929,
      "迩": 4930,
      "迪": 4931,
      "迫": 4932,
      "迭": 4933,
      "述": 4934,
      "迳": 4935,
      "迷": 4936,
      "迸": 4937,
      "迹": 4938,
      "迺": 4939,
      "追": 4940,
      "退": 4941,
      "送": 4942,
      "适": 4943,
      "逃": 4944,
      "逅": 4945,
      "逆": 4946,
      "选": 4947,
      "逊": 4948,
      "逍": 4949,
      "透": 4950,
      "逐": 4951,
      "递": 4952,
      "途": 4953,
      "逗": 4954,
      "通": 4955,
      "逛": 4956,
      "逝": 4957,
      "逞": 4958,
      "速": 4959,
      "造": 4960,
      "逢": 4961,
      "逮": 4962,
      "逵": 4963,
      "逶": 4964,
      "逸": 4965,
      "逻": 4966,
      "逼": 4967,
      "逾": 4968,
      "遁": 4969,
      "遂": 4970,
      "遇": 4971,
      "遍": 4972,
      "遏": 4973,
      "遐": 4974,
      "遑": 4975,
      "遒": 4976,
      "道": 4977,
      "遗": 4978,
      "遛": 4979,
      "遢": 4980,
      "遣": 4981,
      "遥": 4982,
      "遨": 4983,
      "遭": 4984,
      "遮": 4985,
      "遴": 4986,
      "遵": 4987,
      "遶": 4988,
      "遽": 4989,
      "避": 4990,
      "邀": 4991,
      "邃": 4992,
      "邈": 4993,
      "邑": 4994,
      "邓": 4995,
      "邕": 4996,
      "邛": 4997,
      "邝": 4998,
      "邢": 4999,
      "那": 5000,
      "邦": 5001,
      "邨": 5002,
      "邪": 5003,
      "邬": 5004,
      "邮": 5005,
      "邯": 5006,
      "邰": 5007,
      "邱": 5008,
      "邳": 5009,
      "邵": 5010,
      "邸": 5011,
      "邹": 5012,
      "邺": 5013,
      "邻": 5014,
      "郁": 5015,
      "郅": 5016,
      "郊": 5017,
      "郎": 5018,
      "郑": 5019,
      "郗": 5020,
      "郜": 5021,
      "郝": 5022,
      "郡": 5023,
      "郢": 5024,
      "郤": 5025,
      "郦": 5026,
      "郧": 5027,
      "部": 5028,
      "郫": 5029,
      "郭": 5030,
      "郴": 5031,
      "郷": 5032,
      "郸": 5033,
      "都": 5034,
      "鄂": 5035,
      "鄙": 5036,
      "鄞": 5037,
      "鄢": 5038,
      "鄱": 5039,
      "酉": 5040,
      "酊": 5041,
      "酋": 5042,
      "酌": 5043,
      "配": 5044,
      "酐": 5045,
      "酒": 5046,
      "酗": 5047,
      "酚": 5048,
      "酝": 5049,
      "酢": 5050,
      "酣": 5051,
      "酥": 5052,
      "酩": 5053,
      "酪": 5054,
      "酬": 5055,
      "酮": 5056,
      "酯": 5057,
      "酰": 5058,
      "酱": 5059,
      "酵": 5060,
      "酶": 5061,
      "酷": 5062,
      "酸": 5063,
      "酿": 5064,
      "醇": 5065,
      "醉": 5066,
      "醋": 5067,
      "醍": 5068,
      "醒": 5069,
      "醚": 5070,
      "醛": 5071,
      "醪": 5072,
      "醮": 5073,
      "醯": 5074,
      "醴": 5075,
      "醺": 5076,
      "采": 5077,
      "釉": 5078,
      "释": 5079,
      "里": 5080,
      "重": 5081,
      "野": 5082,
      "量": 5083,
      "金": 5084,
      "釜": 5085,
      "鈭": 5086,
      "鉄": 5087,
      "鉴": 5088,
      "銝": 5089,
      "銮": 5090,
      "鎏": 5091,
      "鎗": 5092,
      "鏖": 5093,
      "鑫": 5094,
      "针": 5095,
      "钉": 5096,
      "钊": 5097,
      "钎": 5098,
      "钏": 5099,
      "钒": 5100,
      "钓": 5101,
      "钗": 5102,
      "钙": 5103,
      "钛": 5104,
      "钜": 5105,
      "钝": 5106,
      "钞": 5107,
      "钟": 5108,
      "钠": 5109,
      "钡": 5110,
      "钢": 5111,
      "钣": 5112,
      "钤": 5113,
      "钥": 5114,
      "钦": 5115,
      "钧": 5116,
      "钨": 5117,
      "钩": 5118,
      "钮": 5119,
      "钯": 5120,
      "钰": 5121,
      "钱": 5122,
      "钳": 5123,
      "钴": 5124,
      "钵": 5125,
      "钺": 5126,
      "钻": 5127,
      "钼": 5128,
      "钾": 5129,
      "钿": 5130,
      "铀": 5131,
      "铁": 5132,
      "铂": 5133,
      "铃": 5134,
      "铄": 5135,
      "铅": 5136,
      "铆": 5137,
      "铉": 5138,
      "铋": 5139,
      "铌": 5140,
      "铍": 5141,
      "铎": 5142,
      "铐": 5143,
      "铛": 5144,
      "铜": 5145,
      "铝": 5146,
      "铠": 5147,
      "铡": 5148,
      "铢": 5149,
      "铣": 5150,
      "铤": 5151,
      "铨": 5152,
      "铬": 5153,
      "铭": 5154,
      "铮": 5155,
      "铰": 5156,
      "铲": 5157,
      "铳": 5158,
      "铵": 5159,
      "银": 5160,
      "铸": 5161,
      "铺": 5162,
      "链": 5163,
      "铿": 5164,
      "销": 5165,
      "锁": 5166,
      "锂": 5167,
      "锄": 5168,
      "锅": 5169,
      "锆": 5170,
      "锈": 5171,
      "锉": 5172,
      "锋": 5173,
      "锌": 5174,
      "锏": 5175,
      "锐": 5176,
      "锑": 5177,
      "锗": 5178,
      "错": 5179,
      "锚": 5180,
      "锟": 5181,
      "锡": 5182,
      "锢": 5183,
      "锣": 5184,
      "锤": 5185,
      "锥": 5186,
      "锦": 5187,
      "锭": 5188,
      "键": 5189,
      "锯": 5190,
      "锰": 5191,
      "锲": 5192,
      "锵": 5193,
      "锶": 5194,
      "锹": 5195,
      "锺": 5196,
      "锻": 5197,
      "镀": 5198,
      "镁": 5199,
      "镂": 5200,
      "镇": 5201,
      "镉": 5202,
      "镌": 5203,
      "镍": 5204,
      "镐": 5205,
      "镑": 5206,
      "镕": 5207,
      "镖": 5208,
      "镗": 5209,
      "镛": 5210,
      "镜": 5211,
      "镣": 5212,
      "镬": 5213,
      "镭": 5214,
      "镯": 5215,
      "镰": 5216,
      "镳": 5217,
      "镶": 5218,
      "长": 5219,
      "関": 5220,
      "闘": 5221,
      "门": 5222,
      "闪": 5223,
      "闫": 5224,
      "闭": 5225,
      "问": 5226,
      "闯": 5227,
      "闰": 5228,
      "闲": 5229,
      "间": 5230,
      "闵": 5231,
      "闷": 5232,
      "闸": 5233,
      "闹": 5234,
      "闺": 5235,
      "闻": 5236,
      "闽": 5237,
      "闾": 5238,
      "阀": 5239,
      "阁": 5240,
      "阂": 5241,
      "阅": 5242,
      "阆": 5243,
      "阇": 5244,
      "阈": 5245,
      "阉": 5246,
      "阎": 5247,
      "阐": 5248,
      "阑": 5249,
      "阔": 5250,
      "阕": 5251,
      "阖": 5252,
      "阗": 5253,
      "阙": 5254,
      "阚": 5255,
      "阜": 5256,
      "队": 5257,
      "阡": 5258,
      "阪": 5259,
      "阮": 5260,
      "阱": 5261,
      "防": 5262,
      "阳": 5263,
      "阴": 5264,
      "阵": 5265,
      "阶": 5266,
      "阻": 5267,
      "阿": 5268,
      "陀": 5269,
      "陂": 5270,
      "附": 5271,
      "际": 5272,
      "陆": 5273,
      "陇": 5274,
      "陈": 5275,
      "陋": 5276,
      "陌": 5277,
      "降": 5278,
      "限": 5279,
      "陕": 5280,
      "陛": 5281,
      "陟": 5282,
      "陡": 5283,
      "院": 5284,
      "除": 5285,
      "陨": 5286,
      "险": 5287,
      "陪": 5288,
      "陲": 5289,
      "陵": 5290,
      "陶": 5291,
      "陷": 5292,
      "険": 5293,
      "隅": 5294,
      "隆": 5295,
      "隈": 5296,
      "隋": 5297,
      "隍": 5298,
      "随": 5299,
      "隐": 5300,
      "隔": 5301,
      "隗": 5302,
      "隘": 5303,
      "隙": 5304,
      "障": 5305,
      "隞": 5306,
      "隠": 5307,
      "隡": 5308,
      "隣": 5309,
      "隧": 5310,
      "隶": 5311,
      "隼": 5312,
      "隽": 5313,
      "难": 5314,
      "雀": 5315,
      "雁": 5316,
      "雄": 5317,
      "雅": 5318,
      "集": 5319,
      "雇": 5320,
      "雉": 5321,
      "雌": 5322,
      "雍": 5323,
      "雎": 5324,
      "雏": 5325,
      "雑": 5326,
      "雒": 5327,
      "雕": 5328,
      "雨": 5329,
      "雪": 5330,
      "雯": 5331,
      "雳": 5332,
      "零": 5333,
      "雷": 5334,
      "雹": 5335,
      "雾": 5336,
      "需": 5337,
      "霁": 5338,
      "霂": 5339,
      "霄": 5340,
      "霆": 5341,
      "震": 5342,
      "霈": 5343,
      "霉": 5344,
      "霊": 5345,
      "霍": 5346,
      "霎": 5347,
      "霏": 5348,
      "霑": 5349,
      "霓": 5350,
      "霖": 5351,
      "霜": 5352,
      "霞": 5353,
      "霭": 5354,
      "霰": 5355,
      "露": 5356,
      "霸": 5357,
      "霹": 5358,
      "霾": 5359,
      "青": 5360,
      "靓": 5361,
      "靖": 5362,
      "静": 5363,
      "靛": 5364,
      "非": 5365,
      "靠": 5366,
      "靡": 5367,
      "面": 5368,
      "靥": 5369,
      "革": 5370,
      "靳": 5371,
      "靴": 5372,
      "靶": 5373,
      "靼": 5374,
      "鞅": 5375,
      "鞋": 5376,
      "鞍": 5377,
      "鞑": 5378,
      "鞘": 5379,
      "鞠": 5380,
      "鞣": 5381,
      "鞭": 5382,
      "韦": 5383,
      "韧": 5384,
      "韩": 5385,
      "韬": 5386,
      "韭": 5387,
      "音": 5388,
      "韵": 5389,
      "韶": 5390,
      "頼": 5391,
      "页": 5392,
      "顶": 5393,
      "顷": 5394,
      "项": 5395,
      "顺": 5396,
      "须": 5397,
      "顼": 5398,
      "顽": 5399,
      "顾": 5400,
      "顿": 5401,
      "颁": 5402,
      "颂": 5403,
      "预": 5404,
      "颅": 5405,
      "领": 5406,
      "颇": 5407,
      "颈": 5408,
      "颉": 5409,
      "颊": 5410,
      "颌": 5411,
      "颍": 5412,
      "颏": 5413,
      "颐": 5414,
      "频": 5415,
      "颓": 5416,
      "颔": 5417,
      "颖": 5418,
      "颗": 5419,
      "题": 5420,
      "颚": 5421,
      "颛": 5422,
      "颜": 5423,
      "额": 5424,
      "颞": 5425,
      "颠": 5426,
      "颡": 5427,
      "颢": 5428,
      "颤": 5429,
      "颦": 5430,
      "颧": 5431,
      "风": 5432,
      "飒": 5433,
      "飓": 5434,
      "飘": 5435,
      "飙": 5436,
      "飚": 5437,
      "飞": 5438,
      "食": 5439,
      "飨": 5440,
      "餐": 5441,
      "饕": 5442,
      "饥": 5443,
      "饧": 5444,
      "饪": 5445,
      "饬": 5446,
      "饭": 5447,
      "饮": 5448,
      "饯": 5449,
      "饰": 5450,
      "饱": 5451,
      "饲": 5452,
      "饴": 5453,
      "饵": 5454,
      "饶": 5455,
      "饷": 5456,
      "饺": 5457,
      "饼": 5458,
      "饽": 5459,
      "饿": 5460,
      "馀": 5461,
      "馁": 5462,
      "馅": 5463,
      "馆": 5464,
      "馈": 5465,
      "馋": 5466,
      "馍": 5467,
      "馏": 5468,
      "馒": 5469,
      "馔": 5470,
      "首": 5471,
      "馗": 5472,
      "香": 5473,
      "馥": 5474,
      "馨": 5475,
      "駄": 5476,
      "駅": 5477,
      "駆": 5478,
      "験": 5479,
      "马": 5480,
      "驭": 5481,
      "驮": 5482,
      "驯": 5483,
      "驰": 5484,
      "驱": 5485,
      "驳": 5486,
      "驴": 5487,
      "驶": 5488,
      "驷": 5489,
      "驸": 5490,
      "驹": 5491,
      "驻": 5492,
      "驼": 5493,
      "驾": 5494,
      "驿": 5495,
      "骁": 5496,
      "骂": 5497,
      "骄": 5498,
      "骅": 5499,
      "骆": 5500,
      "骇": 5501,
      "骈": 5502,
      "骊": 5503,
      "骋": 5504,
      "验": 5505,
      "骏": 5506,
      "骐": 5507,
      "骑": 5508,
      "骗": 5509,
      "骚": 5510,
      "骛": 5511,
      "骜": 5512,
      "骞": 5513,
      "骠": 5514,
      "骡": 5515,
      "骤": 5516,
      "骥": 5517,
      "骧": 5518,
      "骨": 5519,
      "骰": 5520,
      "骶": 5521,
      "骷": 5522,
      "骸": 5523,
      "骼": 5524,
      "髂": 5525,
      "髅": 5526,
      "髋": 5527,
      "髓": 5528,
      "高": 5529,
      "髦": 5530,
      "髪": 5531,
      "髯": 5532,
      "髻": 5533,
      "鬃": 5534,
      "鬓": 5535,
      "鬟": 5536,
      "鬣": 5537,
      "鬲": 5538,
      "鬼": 5539,
      "魁": 5540,
      "魂": 5541,
      "魄": 5542,
      "魅": 5543,
      "魇": 5544,
      "魏": 5545,
      "魔": 5546,
      "鮨": 5547,
      "鱼": 5548,
      "鱿": 5549,
      "鲀": 5550,
      "鲁": 5551,
      "鲈": 5552,
      "鲉": 5553,
      "鲍": 5554,
      "鲑": 5555,
      "鲛": 5556,
      "鲜": 5557,
      "鲟": 5558,
      "鲢": 5559,
      "鲤": 5560,
      "鲨": 5561,
      "鲫": 5562,
      "鲱": 5563,
      "鲲": 5564,
      "鲶": 5565,
      "鲷": 5566,
      "鲸": 5567,
      "鳃": 5568,
      "鳄": 5569,
      "鳅": 5570,
      "鳌": 5571,
      "鳍": 5572,
      "鳕": 5573,
      "鳖": 5574,
      "鳗": 5575,
      "鳝": 5576,
      "鳞": 5577,
      "鸟": 5578,
      "鸠": 5579,
      "鸡": 5580,
      "鸢": 5581,
      "鸣": 5582,
      "鸥": 5583,
      "鸦": 5584,
      "鸨": 5585,
      "鸪": 5586,
      "鸭": 5587,
      "鸮": 5588,
      "鸯": 5589,
      "鸳": 5590,
      "鸵": 5591,
      "鸽": 5592,
      "鸾": 5593,
      "鸿": 5594,
      "鹂": 5595,
      "鹃": 5596,
      "鹄": 5597,
      "鹅": 5598,
      "鹈": 5599,
      "鹊": 5600,
      "鹌": 5601,
      "鹏": 5602,
      "鹑": 5603,
      "鹗": 5604,
      "鹘": 5605,
      "鹜": 5606,
      "鹞": 5607,
      "鹤": 5608,
      "鹦": 5609,
      "鹧": 5610,
      "鹫": 5611,
      "鹭": 5612,
      "鹰": 5613,
      "鹳": 5614,
      "鹿": 5615,
      "麂": 5616,
      "麋": 5617,
      "麒": 5618,
      "麓": 5619,
      "麝": 5620,
      "麟": 5621,
      "麦": 5622,
      "麸": 5623,
      "麻": 5624,
      "麾": 5625,
      "黄": 5626,
      "黍": 5627,
      "黎": 5628,
      "黏": 5629,
      "黑": 5630,
      "黒": 5631,
      "黔": 5632,
      "默": 5633,
      "黛": 5634,
      "黜": 5635,
      "黝": 5636,
      "黠": 5637,
      "黯": 5638,
      "鼋": 5639,
      "鼎": 5640,
      "鼐": 5641,
      "鼓": 5642,
      "鼠": 5643,
      "鼬": 5644,
      "鼹": 5645,
      "鼻": 5646,
      "鼾": 5647,
      "齁": 5648,
      "齐": 5649,
      "齿": 5650,
      "龄": 5651,
      "龈": 5652,
      "龋": 5653,
      "龙": 5654,
      "龚": 5655,
      "龛": 5656,
      "龟": 5657,
      "！": 5658,
      "（": 5659,
      "）": 5660,
      "，": 5661,
      "．": 5662,
      "：": 5663,
      "；": 5664,
      "？": 5665,
      "00": 5666,
      "01": 5667,
      "02": 5668,
      "03": 5669,
      "04": 5670,
      "05": 5671,
      "06": 5672,
      "07": 5673,
      "08": 5674,
      "09": 5675,
      "0l": 5676,
      "0t": 5677,
      "10": 5678,
      "11": 5679,
      "12": 5680,
      "13": 5681,
      "14": 5682,
      "15": 5683,
      "16": 5684,
      "17": 5685,
      "18": 5686,
      "19": 5687,
      "1a": 5688,
      "1b": 5689,
      "1g": 5690,
      "1m": 5691,
      "1v": 5692,
      "20": 5693,
      "21": 5694,
      "22": 5695,
      "23": 5696,
      "24": 5697,
      "25": 5698,
      "26": 5699,
      "27": 5700,
      "28": 5701,
      "29": 5702,
      "2a": 5703,
      "2b": 5704,
      "2d": 5705,
      "2g": 5706,
      "2k": 5707,
      "2l": 5708,
      "2m": 5709,
      "30": 5710,
      "31": 5711,
      "32": 5712,
      "33": 5713,
      "34": 5714,
      "35": 5715,
      "36": 5716,
      "37": 5717,
      "38": 5718,
      "39": 5719,
      "3a": 5720,
      "3c": 5721,
      "3d": 5722,
      "3g": 5723,
      "3m": 5724,
      "3p": 5725,
      "3s": 5726,
      "3t": 5727,
      "40": 5728,
      "41": 5729,
      "42": 5730,
      "43": 5731,
      "44": 5732,
      "45": 5733,
      "46": 5734,
      "47": 5735,
      "48": 5736,
      "49": 5737,
      "4a": 5738,
      "4d": 5739,
      "4g": 5740,
      "4k": 5741,
      "4l": 5742,
      "4m": 5743,
      "4s": 5744,
      "50": 5745,
      "51": 5746,
      "52": 5747,
      "53": 5748,
      "54": 5749,
      "55": 5750,
      "56": 5751,
      "57": 5752,
      "58": 5753,
      "59": 5754,
      "5a": 5755,
      "5c": 5756,
      "5d": 5757,
      "5g": 5758,
      "5k": 5759,
      "5l": 5760,
      "5m": 5761,
      "5s": 5762,
      "5t": 5763,
      "5v": 5764,
      "60": 5765,
      "61": 5766,
      "62": 5767,
      "63": 5768,
      "64": 5769,
      "65": 5770,
      "66": 5771,
      "67": 5772,
      "68": 5773,
      "69": 5774,
      "6a": 5775,
      "6g": 5776,
      "6l": 5777,
      "6m": 5778,
      "6p": 5779,
      "6s": 5780,
      "70": 5781,
      "71": 5782,
      "72": 5783,
      "73": 5784,
      "74": 5785,
      "75": 5786,
      "76": 5787,
      "77": 5788,
      "78": 5789,
      "79": 5790,
      "80": 5791,
      "81": 5792,
      "82": 5793,
      "83": 5794,
      "84": 5795,
      "85": 5796,
      "86": 5797,
      "87": 5798,
      "88": 5799,
      "89": 5800,
      "8g": 5801,
      "8k": 5802,
      "90": 5803,
      "91": 5804,
      "92": 5805,
      "93": 5806,
      "94": 5807,
      "95": 5808,
      "96": 5809,
      "97": 5810,
      "98": 5811,
      "99": 5812,
      "a1": 5813,
      "a2": 5814,
      "a3": 5815,
      "a4": 5816,
      "a5": 5817,
      "a6": 5818,
      "a7": 5819,
      "a8": 5820,
      "a9": 5821,
      "aa": 5822,
      "ab": 5823,
      "ac": 5824,
      "ad": 5825,
      "ae": 5826,
      "af": 5827,
      "ag": 5828,
      "ah": 5829,
      "ai": 5830,
      "ak": 5831,
      "al": 5832,
      "am": 5833,
      "an": 5834,
      "ap": 5835,
      "ar": 5836,
      "as": 5837,
      "at": 5838,
      "au": 5839,
      "av": 5840,
      "b1": 5841,
      "b2": 5842,
      "b3": 5843,
      "b5": 5844,
      "b6": 5845,
      "ba": 5846,
      "bb": 5847,
      "bc": 5848,
      "bd": 5849,
      "be": 5850,
      "bh": 5851,
      "bi": 5852,
      "bl": 5853,
      "bo": 5854,
      "bp": 5855,
      "br": 5856,
      "bt": 5857,
      "by": 5858,
      "c1": 5859,
      "c2": 5860,
      "c3": 5861,
      "c4": 5862,
      "c5": 5863,
      "ca": 5864,
      "cb": 5865,
      "cc": 5866,
      "cd": 5867,
      "ce": 5868,
      "cf": 5869,
      "cg": 5870,
      "ch": 5871,
      "ci": 5872,
      "cj": 5873,
      "ck": 5874,
      "cl": 5875,
      "cm": 5876,
      "cn": 5877,
      "co": 5878,
      "cp": 5879,
      "cr": 5880,
      "cs": 5881,
      "ct": 5882,
      "cv": 5883,
      "cx": 5884,
      "d1": 5885,
      "d2": 5886,
      "d3": 5887,
      "d5": 5888,
      "da": 5889,
      "db": 5890,
      "dc": 5891,
      "dd": 5892,
      "de": 5893,
      "di": 5894,
      "dj": 5895,
      "dl": 5896,
      "dm": 5897,
      "do": 5898,
      "dr": 5899,
      "ds": 5900,
      "dt": 5901,
      "du": 5902,
      "dv": 5903,
      "dx": 5904,
      "e1": 5905,
      "e2": 5906,
      "e3": 5907,
      "e5": 5908,
      "e6": 5909,
      "e7": 5910,
      "ea": 5911,
      "eb": 5912,
      "ec": 5913,
      "ed": 5914,
      "ee": 5915,
      "ef": 5916,
      "el": 5917,
      "em": 5918,
      "en": 5919,
      "ep": 5920,
      "eq": 5921,
      "er": 5922,
      "es": 5923,
      "et": 5924,
      "ev": 5925,
      "ex": 5926,
      "f1": 5927,
      "f2": 5928,
      "f3": 5929,
      "f4": 5930,
      "f5": 5931,
      "fa": 5932,
      "fb": 5933,
      "fc": 5934,
      "fe": 5935,
      "ff": 5936,
      "fi": 5937,
      "fm": 5938,
      "ft": 5939,
      "fu": 5940,
      "fx": 5941,
      "g1": 5942,
      "g2": 5943,
      "g3": 5944,
      "g5": 5945,
      "g6": 5946,
      "g7": 5947,
      "g9": 5948,
      "ga": 5949,
      "gb": 5950,
      "gc": 5951,
      "gd": 5952,
      "ge": 5953,
      "gg": 5954,
      "gi": 5955,
      "gl": 5956,
      "gm": 5957,
      "go": 5958,
      "gp": 5959,
      "gs": 5960,
      "gt": 5961,
      "h1": 5962,
      "h2": 5963,
      "h5": 5964,
      "h6": 5965,
      "ha": 5966,
      "hd": 5967,
      "he": 5968,
      "hi": 5969,
      "hk": 5970,
      "ho": 5971,
      "hp": 5972,
      "hr": 5973,
      "hu": 5974,
      "i3": 5975,
      "i5": 5976,
      "i7": 5977,
      "ib": 5978,
      "ic": 5979,
      "id": 5980,
      "ie": 5981,
      "if": 5982,
      "ig": 5983,
      "ii": 5984,
      "il": 5985,
      "im": 5986,
      "in": 5987,
      "io": 5988,
      "ip": 5989,
      "iq": 5990,
      "ir": 5991,
      "is": 5992,
      "it": 5993,
      "iu": 5994,
      "iv": 5995,
      "jb": 5996,
      "ji": 5997,
      "jj": 5998,
      "jo": 5999,
      "jp": 6000,
      "jr": 6001,
      "js": 6002,
      "k2": 6003,
      "ka": 6004,
      "kb": 6005,
      "kd": 6006,
      "kg": 6007,
      "kk": 6008,
      "kl": 6009,
      "km": 6010,
      "ko": 6011,
      "ky": 6012,
      "l1": 6013,
      "l2": 6014,
      "la": 6015,
      "lc": 6016,
      "le": 6017,
      "lg": 6018,
      "li": 6019,
      "ll": 6020,
      "lo": 6021,
      "lp": 6022,
      "lt": 6023,
      "lu": 6024,
      "lv": 6025,
      "ly": 6026,
      "lz": 6027,
      "m1": 6028,
      "m2": 6029,
      "m3": 6030,
      "m4": 6031,
      "m5": 6032,
      "m8": 6033,
      "ma": 6034,
      "mb": 6035,
      "mc": 6036,
      "md": 6037,
      "me": 6038,
      "mg": 6039,
      "mi": 6040,
      "mk": 6041,
      "ml": 6042,
      "mm": 6043,
      "mo": 6044,
      "mp": 6045,
      "mr": 6046,
      "ms": 6047,
      "mt": 6048,
      "mu": 6049,
      "mv": 6050,
      "mx": 6051,
      "my": 6052,
      "n1": 6053,
      "n2": 6054,
      "n3": 6055,
      "na": 6056,
      "nb": 6057,
      "nc": 6058,
      "ne": 6059,
      "ng": 6060,
      "ni": 6061,
      "no": 6062,
      "np": 6063,
      "ns": 6064,
      "nt": 6065,
      "nu": 6066,
      "oa": 6067,
      "ob": 6068,
      "of": 6069,
      "oh": 6070,
      "ok": 6071,
      "ol": 6072,
      "on": 6073,
      "oo": 6074,
      "op": 6075,
      "or": 6076,
      "os": 6077,
      "p1": 6078,
      "p2": 6079,
      "p3": 6080,
      "p9": 6081,
      "pa": 6082,
      "pc": 6083,
      "pd": 6084,
      "pe": 6085,
      "pg": 6086,
      "ph": 6087,
      "pi": 6088,
      "pk": 6089,
      "pm": 6090,
      "po": 6091,
      "pp": 6092,
      "pr": 6093,
      "ps": 6094,
      "pt": 6095,
      "pu": 6096,
      "pv": 6097,
      "q1": 6098,
      "q2": 6099,
      "q3": 6100,
      "q4": 6101,
      "q5": 6102,
      "q7": 6103,
      "qa": 6104,
      "qe": 6105,
      "qi": 6106,
      "qq": 6107,
      "qr": 6108,
      "qs": 6109,
      "qt": 6110,
      "r1": 6111,
      "r2": 6112,
      "r8": 6113,
      "r9": 6114,
      "ra": 6115,
      "rc": 6116,
      "rd": 6117,
      "re": 6118,
      "rf": 6119,
      "rm": 6120,
      "rn": 6121,
      "ro": 6122,
      "rp": 6123,
      "rq": 6124,
      "rs": 6125,
      "rt": 6126,
      "ru": 6127,
      "rx": 6128,
      "s1": 6129,
      "s2": 6130,
      "s3": 6131,
      "s4": 6132,
      "s5": 6133,
      "s6": 6134,
      "s7": 6135,
      "s8": 6136,
      "sa": 6137,
      "sb": 6138,
      "sc": 6139,
      "sd": 6140,
      "se": 6141,
      "sf": 6142,
      "sg": 6143,
      "sh": 6144,
      "si": 6145,
      "sk": 6146,
      "sm": 6147,
      "so": 6148,
      "sp": 6149,
      "sr": 6150,
      "ss": 6151,
      "st": 6152,
      "su": 6153,
      "t1": 6154,
      "t2": 6155,
      "t3": 6156,
      "ta": 6157,
      "tb": 6158,
      "tc": 6159,
      "td": 6160,
      "te": 6161,
      "tf": 6162,
      "ti": 6163,
      "tm": 6164,
      "to": 6165,
      "ts": 6166,
      "tt": 6167,
      "tv": 6168,
      "tw": 6169,
      "ua": 6170,
      "uc": 6171,
      "ui": 6172,
      "uk": 6173,
      "ul": 6174,
      "up": 6175,
      "us": 6176,
      "uv": 6177,
      "v1": 6178,
      "v2": 6179,
      "v3": 6180,
      "v4": 6181,
      "v5": 6182,
      "v6": 6183,
      "v8": 6184,
      "v9": 6185,
      "va": 6186,
      "vc": 6187,
      "ve": 6188,
      "vi": 6189,
      "vm": 6190,
      "vr": 6191,
      "vs": 6192,
      "wd": 6193,
      "we": 6194,
      "wi": 6195,
      "wp": 6196,
      "wu": 6197,
      "ww": 6198,
      "x1": 6199,
      "x2": 6200,
      "x3": 6201,
      "x4": 6202,
      "x5": 6203,
      "x6": 6204,
      "x7": 6205,
      "x9": 6206,
      "xa": 6207,
      "xd": 6208,
      "xi": 6209,
      "xl": 6210,
      "xp": 6211,
      "xr": 6212,
      "xx": 6213,
      "xz": 6214,
      "ya": 6215,
      "yi": 6216,
      "yu": 6217,
      "yy": 6218,
      "z2": 6219,
      "zh": 6220,
      "一一": 6221,
      "一万": 6222,
      "一丈": 6223,
      "一下": 6224,
      "一世": 6225,
      "一丝": 6226,
      "一两": 6227,
      "一个": 6228,
      "一中": 6229,
      "一串": 6230,
      "一举": 6231,
      "一事": 6232,
      "一二": 6233,
      "一些": 6234,
      "一亩": 6235,
      "一亿": 6236,
      "一代": 6237,
      "一件": 6238,
      "一任": 6239,
      "一份": 6240,
      "一伙": 6241,
      "一会": 6242,
      "一位": 6243,
      "一体": 6244,
      "一例": 6245,
      "一侧": 6246,
      "一倍": 6247,
      "一元": 6248,
      "一八": 6249,
      "一共": 6250,
      "一具": 6251,
      "一册": 6252,
      "一再": 6253,
      "一出": 6254,
      "一刀": 6255,
      "一分": 6256,
      "一切": 6257,
      "一列": 6258,
      "一则": 6259,
      "一刻": 6260,
      "一剑": 6261,
      "一副": 6262,
      "一动": 6263,
      "一勺": 6264,
      "一包": 6265,
      "一匹": 6266,
      "一千": 6267,
      "一半": 6268,
      "一卷": 6269,
      "一双": 6270,
      "一发": 6271,
      "一口": 6272,
      "一句": 6273,
      "一只": 6274,
      "一台": 6275,
      "一叶": 6276,
      "一号": 6277,
      "一同": 6278,
      "一名": 6279,
      "一向": 6280,
      "一员": 6281,
      "一周": 6282,
      "一味": 6283,
      "一品": 6284,
      "一回": 6285,
      "一团": 6286,
      "一圈": 6287,
      "一场": 6288,
      "一块": 6289,
      "一堂": 6290,
      "一堆": 6291,
      "一声": 6292,
      "一处": 6293,
      "一夜": 6294,
      "一大": 6295,
      "一天": 6296,
      "一头": 6297,
      "一套": 6298,
      "一如": 6299,
      "一季": 6300,
      "一宗": 6301,
      "一定": 6302,
      "一审": 6303,
      "一家": 6304,
      "一寸": 6305,
      "一对": 6306,
      "一封": 6307,
      "一尊": 6308,
      "一小": 6309,
      "一尺": 6310,
      "一局": 6311,
      "一层": 6312,
      "一届": 6313,
      "一岁": 6314,
      "一师": 6315,
      "一带": 6316,
      "一席": 6317,
      "一帮": 6318,
      "一幅": 6319,
      "一幕": 6320,
      "一幢": 6321,
      "一年": 6322,
      "一并": 6323,
      "一度": 6324,
      "一座": 6325,
      "一开": 6326,
      "一张": 6327,
      "一律": 6328,
      "一心": 6329,
      "一战": 6330,
      "一户": 6331,
      "一所": 6332,
      "一扇": 6333,
      "一手": 6334,
      "一打": 6335,
      "一批": 6336,
      "一把": 6337,
      "一抹": 6338,
      "一招": 6339,
      "一拳": 6340,
      "一排": 6341,
      "一支": 6342,
      "一文": 6343,
      "一斤": 6344,
      "一新": 6345,
      "一方": 6346,
      "一旁": 6347,
      "一日": 6348,
      "一旦": 6349,
      "一早": 6350,
      "一时": 6351,
      "一晃": 6352,
      "一曲": 6353,
      "一月": 6354,
      "一朝": 6355,
      "一期": 6356,
      "一本": 6357,
      "一朵": 6358,
      "一杆": 6359,
      "一村": 6360,
      "一束": 6361,
      "一条": 6362,
      "一来": 6363,
      "一杯": 6364,
      "一枚": 6365,
      "一枝": 6366,
      "一枪": 6367,
      "一架": 6368,
      "一栋": 6369,
      "一株": 6370,
      "一样": 6371,
      "一根": 6372,
      "一案": 6373,
      "一桌": 6374,
      "一档": 6375,
      "一桩": 6376,
      "一桶": 6377,
      "一梦": 6378,
      "一棵": 6379,
      "一楼": 6380,
      "一概": 6381,
      "一次": 6382,
      "一款": 6383,
      "一步": 6384,
      "一段": 6385,
      "一气": 6386,
      "一汽": 6387,
      "一派": 6388,
      "一流": 6389,
      "一滴": 6390,
      "一点": 6391,
      "一片": 6392,
      "一班": 6393,
      "一瓶": 6394,
      "一生": 6395,
      "一番": 6396,
      "一百": 6397,
      "一盆": 6398,
      "一盏": 6399,
      "一盒": 6400,
      "一盘": 6401,
      "一直": 6402,
      "一眼": 6403,
      "一睹": 6404,
      "一瞬": 6405,
      "一碗": 6406,
      "一票": 6407,
      "一种": 6408,
      "一秒": 6409,
      "一程": 6410,
      "一站": 6411,
      "一章": 6412,
      "一端": 6413,
      "一笔": 6414,
      "一等": 6415,
      "一箱": 6416,
      "一篇": 6417,
      "一米": 6418,
      "一类": 6419,
      "一粒": 6420,
      "一级": 6421,
      "一纸": 6422,
      "一线": 6423,
      "一组": 6424,
      "一经": 6425,
      "一统": 6426,
      "一维": 6427,
      "一缕": 6428,
      "一群": 6429,
      "一股": 6430,
      "一脚": 6431,
      "一脸": 6432,
      "一腔": 6433,
      "一致": 6434,
      "一般": 6435,
      "一艘": 6436,
      "一色": 6437,
      "一节": 6438,
      "一行": 6439,
      "一袋": 6440,
      "一览": 6441,
      "一角": 6442,
      "一记": 6443,
      "一贯": 6444,
      "一起": 6445,
      "一趟": 6446,
      "一路": 6447,
      "一身": 6448,
      "一车": 6449,
      "一轮": 6450,
      "一辆": 6451,
      "一辈": 6452,
      "一边": 6453,
      "一连": 6454,
      "一通": 6455,
      "一遍": 6456,
      "一道": 6457,
      "一部": 6458,
      "一重": 6459,
      "一针": 6460,
      "一门": 6461,
      "一间": 6462,
      "一队": 6463,
      "一阵": 6464,
      "一隅": 6465,
      "一集": 6466,
      "一面": 6467,
      "一页": 6468,
      "一顶": 6469,
      "一项": 6470,
      "一顿": 6471,
      "一颗": 6472,
      "一餐": 6473,
      "一首": 6474,
      "一齐": 6475,
      "丁丁": 6476,
      "丁卯": 6477,
      "丁基": 6478,
      "丁未": 6479,
      "丁酉": 6480,
      "丁香": 6481,
      "七一": 6482,
      "七七": 6483,
      "七世": 6484,
      "七个": 6485,
      "七五": 6486,
      "七位": 6487,
      "七八": 6488,
      "七分": 6489,
      "七十": 6490,
      "七千": 6491,
      "七号": 6492,
      "七品": 6493,
      "七夕": 6494,
      "七天": 6495,
      "七宝": 6496,
      "七层": 6497,
      "七届": 6498,
      "七岁": 6499,
      "七年": 6500,
      "七座": 6501,
      "七彩": 6502,
      "七律": 6503,
      "七成": 6504,
      "七日": 6505,
      "七星": 6506,
      "七月": 6507,
      "七条": 6508,
      "七次": 6509,
      "七点": 6510,
      "七百": 6511,
      "七种": 6512,
      "七章": 6513,
      "七级": 6514,
      "七色": 6515,
      "七言": 6516,
      "七里": 6517,
      "七项": 6518,
      "万一": 6519,
      "万万": 6520,
      "万丈": 6521,
      "万世": 6522,
      "万两": 6523,
      "万个": 6524,
      "万事": 6525,
      "万亩": 6526,
      "万亿": 6527,
      "万代": 6528,
      "万件": 6529,
      "万份": 6530,
      "万众": 6531,
      "万余": 6532,
      "万元": 6533,
      "万册": 6534,
      "万分": 6535,
      "万千": 6536,
      "万卷": 6537,
      "万历": 6538,
      "万古": 6539,
      "万台": 6540,
      "万名": 6541,
      "万向": 6542,
      "万吨": 6543,
      "万国": 6544,
      "万圣": 6545,
      "万块": 6546,
      "万多": 6547,
      "万头": 6548,
      "万套": 6549,
      "万宁": 6550,
      "万安": 6551,
      "万宝": 6552,
      "万家": 6553,
      "万山": 6554,
      "万岁": 6555,
      "万州": 6556,
      "万年": 6557,
      "万张": 6558,
      "万户": 6559,
      "万斤": 6560,
      "万方": 6561,
      "万条": 6562,
      "万株": 6563,
      "万桶": 6564,
      "万次": 6565,
      "万民": 6566,
      "万物": 6567,
      "万福": 6568,
      "万种": 6569,
      "万科": 6570,
      "万米": 6571,
      "万股": 6572,
      "万能": 6573,
      "万般": 6574,
      "万象": 6575,
      "万豪": 6576,
      "万辆": 6577,
      "万达": 6578,
      "万通": 6579,
      "万部": 6580,
      "万里": 6581,
      "丈夫": 6582,
      "丈量": 6583,
      "三七": 6584,
      "三万": 6585,
      "三下": 6586,
      "三世": 6587,
      "三两": 6588,
      "三个": 6589,
      "三中": 6590,
      "三九": 6591,
      "三五": 6592,
      "三井": 6593,
      "三亚": 6594,
      "三产": 6595,
      "三代": 6596,
      "三件": 6597,
      "三份": 6598,
      "三位": 6599,
      "三倍": 6600,
      "三元": 6601,
      "三八": 6602,
      "三公": 6603,
      "三军": 6604,
      "三农": 6605,
      "三分": 6606,
      "三包": 6607,
      "三区": 6608,
      "三十": 6609,
      "三千": 6610,
      "三卷": 6611,
      "三口": 6612,
      "三句": 6613,
      "三只": 6614,
      "三台": 6615,
      "三叶": 6616,
      "三号": 6617,
      "三合": 6618,
      "三名": 6619,
      "三周": 6620,
      "三品": 6621,
      "三四": 6622,
      "三国": 6623,
      "三场": 6624,
      "三块": 6625,
      "三处": 6626,
      "三天": 6627,
      "三头": 6628,
      "三套": 6629,
      "三子": 6630,
      "三季": 6631,
      "三宝": 6632,
      "三家": 6633,
      "三尺": 6634,
      "三局": 6635,
      "三层": 6636,
      "三届": 6637,
      "三山": 6638,
      "三岁": 6639,
      "三岛": 6640,
      "三峡": 6641,
      "三年": 6642,
      "三度": 6643,
      "三座": 6644,
      "三张": 6645,
      "三弦": 6646,
      "三成": 6647,
      "三房": 6648,
      "三才": 6649,
      "三支": 6650,
      "三教": 6651,
      "三方": 6652,
      "三无": 6653,
      "三日": 6654,
      "三明": 6655,
      "三星": 6656,
      "三昧": 6657,
      "三晋": 6658,
      "三月": 6659,
      "三期": 6660,
      "三本": 6661,
      "三条": 6662,
      "三板": 6663,
      "三根": 6664,
      "三桥": 6665,
      "三次": 6666,
      "三款": 6667,
      "三步": 6668,
      "三段": 6669,
      "三毛": 6670,
      "三水": 6671,
      "三江": 6672,
      "三河": 6673,
      "三洋": 6674,
      "三流": 6675,
      "三清": 6676,
      "三滤": 6677,
      "三点": 6678,
      "三环": 6679,
      "三生": 6680,
      "三甲": 6681,
      "三界": 6682,
      "三百": 6683,
      "三皇": 6684,
      "三相": 6685,
      "三种": 6686,
      "三科": 6687,
      "三秦": 6688,
      "三章": 6689,
      "三等": 6690,
      "三篇": 6691,
      "三类": 6692,
      "三级": 6693,
      "三线": 6694,
      "三组": 6695,
      "三维": 6696,
      "三者": 6697,
      "三联": 6698,
      "三节": 6699,
      "三菱": 6700,
      "三藏": 6701,
      "三观": 6702,
      "三角": 6703,
      "三路": 6704,
      "三轮": 6705,
      "三进": 6706,
      "三通": 6707,
      "三遍": 6708,
      "三道": 6709,
      "三部": 6710,
      "三里": 6711,
      "三重": 6712,
      "三门": 6713,
      "三间": 6714,
      "三阳": 6715,
      "三院": 6716,
      "三面": 6717,
      "三项": 6718,
      "三颗": 6719,
      "三餐": 6720,
      "三首": 6721,
      "上万": 6722,
      "上下": 6723,
      "上乘": 6724,
      "上书": 6725,
      "上交": 6726,
      "上京": 6727,
      "上任": 6728,
      "上传": 6729,
      "上位": 6730,
      "上体": 6731,
      "上佳": 6732,
      "上党": 6733,
      "上册": 6734,
      "上前": 6735,
      "上千": 6736,
      "上升": 6737,
      "上午": 6738,
      "上半": 6739,
      "上卷": 6740,
      "上去": 6741,
      "上古": 6742,
      "上台": 6743,
      "上司": 6744,
      "上周": 6745,
      "上品": 6746,
      "上唇": 6747,
      "上场": 6748,
      "上坡": 6749,
      "上天": 6750,
      "上头": 6751,
      "上学": 6752,
      "上官": 6753,
      "上将": 6754,
      "上尉": 6755,
      "上层": 6756,
      "上届": 6757,
      "上山": 6758,
      "上岗": 6759,
      "上岸": 6760,
      "上市": 6761,
      "上帝": 6762,
      "上年": 6763,
      "上床": 6764,
      "上当": 6765,
      "上扬": 6766,
      "上报": 6767,
      "上攻": 6768,
      "上方": 6769,
      "上旬": 6770,
      "上映": 6771,
      "上期": 6772,
      "上机": 6773,
      "上来": 6774,
      "上架": 6775,
      "上校": 6776,
      "上桌": 6777,
      "上楼": 6778,
      "上榜": 6779,
      "上次": 6780,
      "上流": 6781,
      "上浮": 6782,
      "上海": 6783,
      "上涨": 6784,
      "上游": 6785,
      "上溯": 6786,
      "上演": 6787,
      "上火": 6788,
      "上班": 6789,
      "上瘾": 6790,
      "上百": 6791,
      "上皮": 6792,
      "上移": 6793,
      "上空": 6794,
      "上端": 6795,
      "上篮": 6796,
      "上级": 6797,
      "上线": 6798,
      "上缴": 6799,
      "上网": 6800,
      "上联": 6801,
      "上肢": 6802,
      "上船": 6803,
      "上药": 6804,
      "上菜": 6805,
      "上虞": 6806,
      "上行": 6807,
      "上街": 6808,
      "上衣": 6809,
      "上表": 6810,
      "上装": 6811,
      "上访": 6812,
      "上证": 6813,
      "上诉": 6814,
      "上课": 6815,
      "上调": 6816,
      "上路": 6817,
      "上身": 6818,
      "上车": 6819,
      "上边": 6820,
      "上述": 6821,
      "上部": 6822,
      "上野": 6823,
      "上钩": 6824,
      "上铺": 6825,
      "上门": 6826,
      "上阵": 6827,
      "上限": 6828,
      "上面": 6829,
      "上颌": 6830,
      "上风": 6831,
      "上饶": 6832,
      "上马": 6833,
      "下乡": 6834,
      "下令": 6835,
      "下位": 6836,
      "下体": 6837,
      "下关": 6838,
      "下册": 6839,
      "下凡": 6840,
      "下列": 6841,
      "下午": 6842,
      "下单": 6843,
      "下压": 6844,
      "下去": 6845,
      "下发": 6846,
      "下台": 6847,
      "下同": 6848,
      "下周": 6849,
      "下唇": 6850,
      "下图": 6851,
      "下场": 6852,
      "下坡": 6853,
      "下垂": 6854,
      "下嫁": 6855,
      "下层": 6856,
      "下属": 6857,
      "下山": 6858,
      "下岗": 6859,
      "下巴": 6860,
      "下手": 6861,
      "下挫": 6862,
      "下探": 6863,
      "下摆": 6864,
      "下放": 6865,
      "下文": 6866,
      "下方": 6867,
      "下旬": 6868,
      "下期": 6869,
      "下来": 6870,
      "下棋": 6871,
      "下楼": 6872,
      "下榻": 6873,
      "下次": 6874,
      "下水": 6875,
      "下沉": 6876,
      "下沙": 6877,
      "下注": 6878,
      "下流": 6879,
      "下海": 6880,
      "下游": 6881,
      "下滑": 6882,
      "下狱": 6883,
      "下班": 6884,
      "下界": 6885,
      "下移": 6886,
      "下端": 6887,
      "下笔": 6888,
      "下篇": 6889,
      "下级": 6890,
      "下线": 6891,
      "下联": 6892,
      "下肢": 6893,
      "下腹": 6894,
      "下落": 6895,
      "下行": 6896,
      "下设": 6897,
      "下课": 6898,
      "下调": 6899,
      "下跌": 6900,
      "下跪": 6901,
      "下身": 6902,
      "下车": 6903,
      "下载": 6904,
      "下辖": 6905,
      "下边": 6906,
      "下达": 6907,
      "下过": 6908,
      "下述": 6909,
      "下部": 6910,
      "下锅": 6911,
      "下降": 6912,
      "下限": 6913,
      "下陷": 6914,
      "下雨": 6915,
      "下雪": 6916,
      "下面": 6917,
      "下颌": 6918,
      "下颚": 6919,
      "下马": 6920,
      "不下": 6921,
      "不严": 6922,
      "不丹": 6923,
      "不久": 6924,
      "不乏": 6925,
      "不了": 6926,
      "不予": 6927,
      "不争": 6928,
      "不二": 6929,
      "不仅": 6930,
      "不休": 6931,
      "不会": 6932,
      "不但": 6933,
      "不住": 6934,
      "不便": 6935,
      "不俗": 6936,
      "不值": 6937,
      "不停": 6938,
      "不光": 6939,
      "不免": 6940,
      "不公": 6941,
      "不具": 6942,
      "不再": 6943,
      "不准": 6944,
      "不减": 6945,
      "不凡": 6946,
      "不利": 6947,
      "不到": 6948,
      "不力": 6949,
      "不单": 6950,
      "不厌": 6951,
      "不及": 6952,
      "不变": 6953,
      "不可": 6954,
      "不吃": 6955,
      "不合": 6956,
      "不同": 6957,
      "不善": 6958,
      "不均": 6959,
      "不堪": 6960,
      "不够": 6961,
      "不失": 6962,
      "不好": 6963,
      "不如": 6964,
      "不妙": 6965,
      "不妥": 6966,
      "不妨": 6967,
      "不孕": 6968,
      "不孝": 6969,
      "不安": 6970,
      "不定": 6971,
      "不宜": 6972,
      "不容": 6973,
      "不小": 6974,
      "不少": 6975,
      "不尽": 6976,
      "不屈": 6977,
      "不屑": 6978,
      "不巧": 6979,
      "不已": 6980,
      "不平": 6981,
      "不幸": 6982,
      "不当": 6983,
      "不得": 6984,
      "不必": 6985,
      "不忍": 6986,
      "不快": 6987,
      "不怕": 6988,
      "不息": 6989,
      "不悦": 6990,
      "不惜": 6991,
      "不想": 6992,
      "不愧": 6993,
      "不慎": 6994,
      "不懈": 6995,
      "不成": 6996,
      "不拘": 6997,
      "不敢": 6998,
      "不料": 6999,
      "不断": 7000,
      "不无": 7001,
      "不时": 7002,
      "不明": 7003,
      "不易": 7004,
      "不是": 7005,
      "不曾": 7006,
      "不服": 7007,
      "不朽": 7008,
      "不止": 7009,
      "不正": 7010,
      "不法": 7011,
      "不济": 7012,
      "不满": 7013,
      "不然": 7014,
      "不爽": 7015,
      "不理": 7016,
      "不甘": 7017,
      "不用": 7018,
      "不由": 7019,
      "不畏": 7020,
      "不留": 7021,
      "不知": 7022,
      "不破": 7023,
      "不祥": 7024,
      "不禁": 7025,
      "不竭": 7026,
      "不符": 7027,
      "不算": 7028,
      "不管": 7029,
      "不羁": 7030,
      "不肯": 7031,
      "不育": 7032,
      "不胜": 7033,
      "不能": 7034,
      "不致": 7035,
      "不良": 7036,
      "不菲": 7037,
      "不行": 7038,
      "不衰": 7039,
      "不要": 7040,
      "不见": 7041,
      "不觉": 7042,
      "不解": 7043,
      "不计": 7044,
      "不让": 7045,
      "不许": 7046,
      "不论": 7047,
      "不该": 7048,
      "不详": 7049,
      "不语": 7050,
      "不负": 7051,
      "不败": 7052,
      "不足": 7053,
      "不过": 7054,
      "不远": 7055,
      "不适": 7056,
      "不通": 7057,
      "不配": 7058,
      "不错": 7059,
      "不问": 7060,
      "不难": 7061,
      "不靠": 7062,
      "不顺": 7063,
      "不须": 7064,
      "不顾": 7065,
      "不齐": 7066,
      "与会": 7067,
      "与其": 7068,
      "与否": 7069,
      "与非": 7070,
      "丐帮": 7071,
      "丑女": 7072,
      "丑恶": 7073,
      "丑闻": 7074,
      "丑陋": 7075,
      "专一": 7076,
      "专业": 7077,
      "专人": 7078,
      "专供": 7079,
      "专修": 7080,
      "专刊": 7081,
      "专列": 7082,
      "专利": 7083,
      "专制": 7084,
      "专区": 7085,
      "专卖": 7086,
      "专员": 7087,
      "专场": 7088,
      "专家": 7089,
      "专属": 7090,
      "专心": 7091,
      "专户": 7092,
      "专指": 7093,
      "专攻": 7094,
      "专政": 7095,
      "专有": 7096,
      "专权": 7097,
      "专柜": 7098,
      "专栏": 7099,
      "专案": 7100,
      "专注": 7101,
      "专版": 7102,
      "专用": 7103,
      "专电": 7104,
      "专科": 7105,
      "专程": 7106,
      "专精": 7107,
      "专线": 7108,
      "专署": 7109,
      "专职": 7110,
      "专营": 7111,
      "专著": 7112,
      "专访": 7113,
      "专车": 7114,
      "专辑": 7115,
      "专长": 7116,
      "专门": 7117,
      "专集": 7118,
      "专项": 7119,
      "专题": 7120,
      "世上": 7121,
      "世事": 7122,
      "世人": 7123,
      "世代": 7124,
      "世俗": 7125,
      "世博": 7126,
      "世外": 7127,
      "世子": 7128,
      "世孙": 7129,
      "世宗": 7130,
      "世家": 7131,
      "世尊": 7132,
      "世居": 7133,
      "世情": 7134,
      "世故": 7135,
      "世界": 7136,
      "世祖": 7137,
      "世系": 7138,
      "世纪": 7139,
      "世袭": 7140,
      "世贸": 7141,
      "世道": 7142,
      "世间": 7143,
      "丘疹": 7144,
      "丘陵": 7145,
      "丙午": 7146,
      "丙烯": 7147,
      "丙申": 7148,
      "丙肝": 7149,
      "丙辰": 7150,
      "丙酮": 7151,
      "业主": 7152,
      "业余": 7153,
      "业内": 7154,
      "业务": 7155,
      "业已": 7156,
      "业态": 7157,
      "业界": 7158,
      "业绩": 7159,
      "业者": 7160,
      "丛中": 7161,
      "丛书": 7162,
      "丛刊": 7163,
      "丛林": 7164,
      "丛生": 7165,
      "东东": 7166,
      "东临": 7167,
      "东乡": 7168,
      "东亚": 7169,
      "东京": 7170,
      "东侧": 7171,
      "东关": 7172,
      "东兴": 7173,
      "东北": 7174,
      "东区": 7175,
      "东升": 7176,
      "东华": 7177,
      "东南": 7178,
      "东台": 7179,
      "东吴": 7180,
      "东周": 7181,
      "东坡": 7182,
      "东城": 7183,
      "东大": 7184,
      "东夷": 7185,
      "东安": 7186,
      "东宫": 7187,
      "东家": 7188,
      "东山": 7189,
      "东岳": 7190,
      "东岸": 7191,
      "东川": 7192,
      "东平": 7193,
      "东征": 7194,
      "东德": 7195,
      "东方": 7196,
      "东明": 7197,
      "东晋": 7198,
      "东村": 7199,
      "东来": 7200,
      "东林": 7201,
      "东欧": 7202,
      "东段": 7203,
      "东汉": 7204,
      "东江": 7205,
      "东洋": 7206,
      "东海": 7207,
      "东渡": 7208,
      "东港": 7209,
      "东湖": 7210,
      "东盟": 7211,
      "东站": 7212,
      "东端": 7213,
      "东线": 7214,
      "东经": 7215,
      "东至": 7216,
      "东航": 7217,
      "东芝": 7218,
      "东莞": 7219,
      "东营": 7220,
      "东街": 7221,
      "东西": 7222,
      "东起": 7223,
      "东路": 7224,
      "东边": 7225,
      "东郊": 7226,
      "东部": 7227,
      "东野": 7228,
      "东门": 7229,
      "东阳": 7230,
      "东阿": 7231,
      "东非": 7232,
      "东面": 7233,
      "东风": 7234,
      "东魏": 7235,
      "东麓": 7236,
      "丝巾": 7237,
      "丝带": 7238,
      "丝毫": 7239,
      "丝状": 7240,
      "丝瓜": 7241,
      "丝线": 7242,
      "丝绒": 7243,
      "丝绸": 7244,
      "丝网": 7245,
      "丝袜": 7246,
      "丝路": 7247,
      "丞相": 7248,
      "丢下": 7249,
      "丢人": 7250,
      "丢失": 7251,
      "丢弃": 7252,
      "丢掉": 7253,
      "丢脸": 7254,
      "两万": 7255,
      "两下": 7256,
      "两个": 7257,
      "两代": 7258,
      "两件": 7259,
      "两份": 7260,
      "两会": 7261,
      "两位": 7262,
      "两侧": 7263,
      "两倍": 7264,
      "两册": 7265,
      "两分": 7266,
      "两千": 7267,
      "两半": 7268,
      "两卷": 7269,
      "两厢": 7270,
      "两口": 7271,
      "两句": 7272,
      "两只": 7273,
      "两台": 7274,
      "两名": 7275,
      "两周": 7276,
      "两地": 7277,
      "两场": 7278,
      "两块": 7279,
      "两基": 7280,
      "两处": 7281,
      "两天": 7282,
      "两头": 7283,
      "两套": 7284,
      "两委": 7285,
      "两季": 7286,
      "两家": 7287,
      "两对": 7288,
      "两层": 7289,
      "两届": 7290,
      "两岁": 7291,
      "两岸": 7292,
      "两幅": 7293,
      "两年": 7294,
      "两广": 7295,
      "两度": 7296,
      "两座": 7297,
      "两张": 7298,
      "两性": 7299,
      "两成": 7300,
      "两所": 7301,
      "两手": 7302,
      "两把": 7303,
      "两排": 7304,
      "两支": 7305,
      "两方": 7306,
      "两旁": 7307,
      "两日": 7308,
      "两期": 7309,
      "两本": 7310,
      "两条": 7311,
      "两极": 7312,
      "两枚": 7313,
      "两架": 7314,
      "两栋": 7315,
      "两栖": 7316,
      "两样": 7317,
      "两根": 7318,
      "两次": 7319,
      "两款": 7320,
      "两步": 7321,
      "两段": 7322,
      "两汉": 7323,
      "两江": 7324,
      "两河": 7325,
      "两派": 7326,
      "两点": 7327,
      "两片": 7328,
      "两用": 7329,
      "两百": 7330,
      "两眼": 7331,
      "两种": 7332,
      "两端": 7333,
      "两篇": 7334,
      "两米": 7335,
      "两类": 7336,
      "两级": 7337,
      "两线": 7338,
      "两组": 7339,
      "两翼": 7340,
      "两者": 7341,
      "两股": 7342,
      "两艘": 7343,
      "两节": 7344,
      "两行": 7345,
      "两起": 7346,
      "两路": 7347,
      "两车": 7348,
      "两轮": 7349,
      "两辆": 7350,
      "两边": 7351,
      "两遍": 7352,
      "两道": 7353,
      "两部": 7354,
      "两门": 7355,
      "两间": 7356,
      "两队": 7357,
      "两院": 7358,
      "两难": 7359,
      "两面": 7360,
      "两项": 7361,
      "两颗": 7362,
      "两首": 7363,
      "严厉": 7364,
      "严守": 7365,
      "严密": 7366,
      "严寒": 7367,
      "严峻": 7368,
      "严惩": 7369,
      "严打": 7370,
      "严控": 7371,
      "严明": 7372,
      "严查": 7373,
      "严格": 7374,
      "严禁": 7375,
      "严肃": 7376,
      "严苛": 7377,
      "严谨": 7378,
      "严酷": 7379,
      "严重": 7380,
      "严防": 7381,
      "丧事": 7382,
      "丧命": 7383,
      "丧失": 7384,
      "丧尸": 7385,
      "丧父": 7386,
      "丧生": 7387,
      "丧葬": 7388,
      "个个": 7389,
      "个人": 7390,
      "个体": 7391,
      "个例": 7392,
      "个别": 7393,
      "个头": 7394,
      "个子": 7395,
      "个展": 7396,
      "个性": 7397,
      "个数": 7398,
      "个案": 7399,
      "个股": 7400,
      "丫头": 7401,
      "丫鬟": 7402,
      "中专": 7403,
      "中东": 7404,
      "中举": 7405,
      "中亚": 7406,
      "中产": 7407,
      "中介": 7408,
      "中信": 7409,
      "中共": 7410,
      "中兴": 7411,
      "中军": 7412,
      "中加": 7413,
      "中化": 7414,
      "中医": 7415,
      "中午": 7416,
      "中华": 7417,
      "中南": 7418,
      "中卫": 7419,
      "中原": 7420,
      "中古": 7421,
      "中叶": 7422,
      "中国": 7423,
      "中土": 7424,
      "中场": 7425,
      "中坚": 7426,
      "中型": 7427,
      "中堂": 7428,
      "中外": 7429,
      "中央": 7430,
      "中奖": 7431,
      "中子": 7432,
      "中学": 7433,
      "中将": 7434,
      "中尉": 7435,
      "中小": 7436,
      "中层": 7437,
      "中山": 7438,
      "中州": 7439,
      "中巴": 7440,
      "中常": 7441,
      "中平": 7442,
      "中年": 7443,
      "中度": 7444,
      "中庸": 7445,
      "中建": 7446,
      "中式": 7447,
      "中弹": 7448,
      "中心": 7449,
      "中性": 7450,
      "中意": 7451,
      "中投": 7452,
      "中招": 7453,
      "中指": 7454,
      "中排": 7455,
      "中文": 7456,
      "中断": 7457,
      "中方": 7458,
      "中日": 7459,
      "中旬": 7460,
      "中暑": 7461,
      "中曾": 7462,
      "中期": 7463,
      "中枢": 7464,
      "中标": 7465,
      "中校": 7466,
      "中档": 7467,
      "中欧": 7468,
      "中止": 7469,
      "中正": 7470,
      "中段": 7471,
      "中毒": 7472,
      "中油": 7473,
      "中海": 7474,
      "中游": 7475,
      "中环": 7476,
      "中秋": 7477,
      "中科": 7478,
      "中空": 7479,
      "中立": 7480,
      "中等": 7481,
      "中篇": 7482,
      "中粮": 7483,
      "中级": 7484,
      "中线": 7485,
      "中继": 7486,
      "中考": 7487,
      "中耕": 7488,
      "中职": 7489,
      "中联": 7490,
      "中肯": 7491,
      "中航": 7492,
      "中药": 7493,
      "中行": 7494,
      "中街": 7495,
      "中西": 7496,
      "中观": 7497,
      "中视": 7498,
      "中试": 7499,
      "中资": 7500,
      "中路": 7501,
      "中转": 7502,
      "中轴": 7503,
      "中远": 7504,
      "中选": 7505,
      "中途": 7506,
      "中速": 7507,
      "中道": 7508,
      "中部": 7509,
      "中铁": 7510,
      "中银": 7511,
      "中锋": 7512,
      "中间": 7513,
      "中队": 7514,
      "中院": 7515,
      "中非": 7516,
      "中频": 7517,
      "中风": 7518,
      "中餐": 7519,
      "丰产": 7520,
      "丰厚": 7521,
      "丰县": 7522,
      "丰台": 7523,
      "丰富": 7524,
      "丰收": 7525,
      "丰满": 7526,
      "丰田": 7527,
      "丰盈": 7528,
      "丰盛": 7529,
      "丰硕": 7530,
      "丰碑": 7531,
      "串口": 7532,
      "串珠": 7533,
      "串联": 7534,
      "串行": 7535,
      "串通": 7536,
      "临场": 7537,
      "临安": 7538,
      "临川": 7539,
      "临床": 7540,
      "临摹": 7541,
      "临时": 7542,
      "临江": 7543,
      "临汾": 7544,
      "临沂": 7545,
      "临沧": 7546,
      "临河": 7547,
      "临海": 7548,
      "临淄": 7549,
      "临清": 7550,
      "临港": 7551,
      "临界": 7552,
      "临终": 7553,
      "临行": 7554,
      "临街": 7555,
      "临近": 7556,
      "丸子": 7557,
      "丹东": 7558,
      "丹佛": 7559,
      "丹参": 7560,
      "丹尼": 7561,
      "丹田": 7562,
      "丹药": 7563,
      "丹阳": 7564,
      "丹霞": 7565,
      "丹青": 7566,
      "丹麦": 7567,
      "为主": 7568,
      "为了": 7569,
      "为伍": 7570,
      "为伴": 7571,
      "为何": 7572,
      "为先": 7573,
      "为准": 7574,
      "为名": 7575,
      "为啥": 7576,
      "为官": 7577,
      "为害": 7578,
      "为政": 7579,
      "为数": 7580,
      "为期": 7581,
      "为止": 7582,
      "为此": 7583,
      "为民": 7584,
      "为生": 7585,
      "为辅": 7586,
      "为重": 7587,
      "为难": 7588,
      "为题": 7589,
      "为首": 7590,
      "主业": 7591,
      "主义": 7592,
      "主产": 7593,
      "主人": 7594,
      "主任": 7595,
      "主体": 7596,
      "主修": 7597,
      "主公": 7598,
      "主创": 7599,
      "主力": 7600,
      "主办": 7601,
      "主动": 7602,
      "主厨": 7603,
      "主唱": 7604,
      "主因": 7605,
      "主场": 7606,
      "主城": 7607,
      "主妇": 7608,
      "主委": 7609,
      "主子": 7610,
      "主审": 7611,
      "主宰": 7612,
      "主导": 7613,
      "主将": 7614,
      "主峰": 7615,
      "主帅": 7616,
      "主席": 7617,
      "主干": 7618,
      "主张": 7619,
      "主意": 7620,
      "主战": 7621,
      "主打": 7622,
      "主持": 7623,
      "主控": 7624,
      "主推": 7625,
      "主攻": 7626,
      "主教": 7627,
      "主料": 7628,
      "主旨": 7629,
      "主机": 7630,
      "主权": 7631,
      "主板": 7632,
      "主枝": 7633,
      "主楼": 7634,
      "主次": 7635,
      "主治": 7636,
      "主流": 7637,
      "主演": 7638,
      "主神": 7639,
      "主笔": 7640,
      "主管": 7641,
      "主线": 7642,
      "主编": 7643,
      "主营": 7644,
      "主要": 7645,
      "主见": 7646,
      "主观": 7647,
      "主角": 7648,
      "主讲": 7649,
      "主语": 7650,
      "主轴": 7651,
      "主队": 7652,
      "主页": 7653,
      "主频": 7654,
      "主题": 7655,
      "主食": 7656,
      "丽丽": 7657,
      "丽人": 7658,
      "丽水": 7659,
      "丽江": 7660,
      "丽莎": 7661,
      "举人": 7662,
      "举例": 7663,
      "举兵": 7664,
      "举出": 7665,
      "举办": 7666,
      "举动": 7667,
      "举家": 7668,
      "举手": 7669,
      "举报": 7670,
      "举措": 7671,
      "举杯": 7672,
      "举止": 7673,
      "举荐": 7674,
      "举行": 7675,
      "举证": 7676,
      "举起": 7677,
      "举重": 7678,
      "乃是": 7679,
      "乃至": 7680,
      "久久": 7681,
      "久之": 7682,
      "久保": 7683,
      "久病": 7684,
      "久远": 7685,
      "久违": 7686,
      "义乌": 7687,
      "义军": 7688,
      "义务": 7689,
      "义卖": 7690,
      "义工": 7691,
      "义气": 7692,
      "义理": 7693,
      "义诊": 7694,
      "之一": 7695,
      "之三": 7696,
      "之上": 7697,
      "之下": 7698,
      "之中": 7699,
      "之二": 7700,
      "之内": 7701,
      "之前": 7702,
      "之后": 7703,
      "之外": 7704,
      "之江": 7705,
      "之流": 7706,
      "之用": 7707,
      "之类": 7708,
      "之间": 7709,
      "之际": 7710,
      "乌云": 7711,
      "乌兰": 7712,
      "乌头": 7713,
      "乌尔": 7714,
      "乌拉": 7715,
      "乌斯": 7716,
      "乌梅": 7717,
      "乌江": 7718,
      "乌贼": 7719,
      "乌镇": 7720,
      "乌鸡": 7721,
      "乌鸦": 7722,
      "乌黑": 7723,
      "乌龙": 7724,
      "乌龟": 7725,
      "乏力": 7726,
      "乏味": 7727,
      "乐乐": 7728,
      "乐于": 7729,
      "乐器": 7730,
      "乐团": 7731,
      "乐园": 7732,
      "乐土": 7733,
      "乐坛": 7734,
      "乐天": 7735,
      "乐山": 7736,
      "乐平": 7737,
      "乐府": 7738,
      "乐意": 7739,
      "乐手": 7740,
      "乐曲": 7741,
      "乐果": 7742,
      "乐清": 7743,
      "乐理": 7744,
      "乐章": 7745,
      "乐舞": 7746,
      "乐观": 7747,
      "乐谱": 7748,
      "乐趣": 7749,
      "乐迷": 7750,
      "乐队": 7751,
      "乒乓": 7752,
      "乔丹": 7753,
      "乔木": 7754,
      "乔治": 7755,
      "乖乖": 7756,
      "乖巧": 7757,
      "乘以": 7758,
      "乘员": 7759,
      "乘坐": 7760,
      "乘客": 7761,
      "乘机": 7762,
      "乘法": 7763,
      "乘着": 7764,
      "乘积": 7765,
      "乘船": 7766,
      "乘车": 7767,
      "乘风": 7768,
      "乙丑": 7769,
      "乙基": 7770,
      "乙方": 7771,
      "乙未": 7772,
      "乙炔": 7773,
      "乙烯": 7774,
      "乙级": 7775,
      "乙肝": 7776,
      "乙酯": 7777,
      "乙酰": 7778,
      "乙酸": 7779,
      "乙醇": 7780,
      "乙醚": 7781,
      "九个": 7782,
      "九九": 7783,
      "九二": 7784,
      "九五": 7785,
      "九分": 7786,
      "九十": 7787,
      "九华": 7788,
      "九号": 7789,
      "九品": 7790,
      "九大": 7791,
      "九天": 7792,
      "九宫": 7793,
      "九尾": 7794,
      "九层": 7795,
      "九届": 7796,
      "九岁": 7797,
      "九州": 7798,
      "九年": 7799,
      "九成": 7800,
      "九日": 7801,
      "九曲": 7802,
      "九月": 7803,
      "九条": 7804,
      "九段": 7805,
      "九江": 7806,
      "九洲": 7807,
      "九点": 7808,
      "九种": 7809,
      "九章": 7810,
      "九重": 7811,
      "九门": 7812,
      "九阳": 7813,
      "九霄": 7814,
      "九鼎": 7815,
      "九龙": 7816,
      "乞丐": 7817,
      "乞讨": 7818,
      "也好": 7819,
      "也罢": 7820,
      "也许": 7821,
      "也门": 7822,
      "习作": 7823,
      "习俗": 7824,
      "习性": 7825,
      "习惯": 7826,
      "习题": 7827,
      "乡下": 7828,
      "乡亲": 7829,
      "乡土": 7830,
      "乡情": 7831,
      "乡愁": 7832,
      "乡村": 7833,
      "乡民": 7834,
      "乡级": 7835,
      "乡试": 7836,
      "乡贤": 7837,
      "乡里": 7838,
      "乡镇": 7839,
      "乡长": 7840,
      "乡间": 7841,
      "书上": 7842,
      "书体": 7843,
      "书信": 7844,
      "书写": 7845,
      "书刊": 7846,
      "书包": 7847,
      "书协": 7848,
      "书单": 7849,
      "书卷": 7850,
      "书友": 7851,
      "书名": 7852,
      "书后": 7853,
      "书城": 7854,
      "书局": 7855,
      "书屋": 7856,
      "书展": 7857,
      "书库": 7858,
      "书店": 7859,
      "书房": 7860,
      "书斋": 7861,
      "书本": 7862,
      "书架": 7863,
      "书柜": 7864,
      "书桌": 7865,
      "书法": 7866,
      "书生": 7867,
      "书画": 7868,
      "书目": 7869,
      "书社": 7870,
      "书稿": 7871,
      "书签": 7872,
      "书籍": 7873,
      "书系": 7874,
      "书记": 7875,
      "书评": 7876,
      "书院": 7877,
      "书面": 7878,
      "书香": 7879,
      "买下": 7880,
      "买入": 7881,
      "买单": 7882,
      "买卖": 7883,
      "买好": 7884,
      "买家": 7885,
      "买房": 7886,
      "买断": 7887,
      "买方": 7888,
      "买来": 7889,
      "买点": 7890,
      "买票": 7891,
      "买进": 7892,
      "乱世": 7893,
      "乳业": 7894,
      "乳剂": 7895,
      "乳化": 7896,
      "乳品": 7897,
      "乳头": 7898,
      "乳房": 7899,
      "乳汁": 7900,
      "乳液": 7901,
      "乳突": 7902,
      "乳粉": 7903,
      "乳糖": 7904,
      "乳胶": 7905,
      "乳腺": 7906,
      "乳酪": 7907,
      "乳酸": 7908,
      "乳香": 7909,
      "乳鸽": 7910,
      "乾坤": 7911,
      "乾隆": 7912,
      "了结": 7913,
      "了解": 7914,
      "予以": 7915,
      "争做": 7916,
      "争先": 7917,
      "争创": 7918,
      "争取": 7919,
      "争吵": 7920,
      "争夺": 7921,
      "争当": 7922,
      "争得": 7923,
      "争执": 7924,
      "争抢": 7925,
      "争斗": 7926,
      "争相": 7927,
      "争端": 7928,
      "争议": 7929,
      "争论": 7930,
      "争辩": 7931,
      "争锋": 7932,
      "争霸": 7933,
      "争鸣": 7934,
      "事业": 7935,
      "事事": 7936,
      "事件": 7937,
      "事例": 7938,
      "事儿": 7939,
      "事先": 7940,
      "事关": 7941,
      "事前": 7942,
      "事务": 7943,
      "事发": 7944,
      "事变": 7945,
      "事后": 7946,
      "事宜": 7947,
      "事实": 7948,
      "事态": 7949,
      "事情": 7950,
      "事故": 7951,
      "事权": 7952,
      "事物": 7953,
      "事理": 7954,
      "事由": 7955,
      "事迹": 7956,
      "事项": 7957,
      "二七": 7958,
      "二三": 7959,
      "二世": 7960,
      "二两": 7961,
      "二个": 7962,
      "二中": 7963,
      "二人": 7964,
      "二代": 7965,
      "二位": 7966,
      "二元": 7967,
      "二八": 7968,
      "二分": 7969,
      "二十": 7970,
      "二千": 7971,
      "二卷": 7972,
      "二句": 7973,
      "二号": 7974,
      "二名": 7975,
      "二品": 7976,
      "二哥": 7977,
      "二回": 7978,
      "二处": 7979,
      "二套": 7980,
      "二审": 7981,
      "二小": 7982,
      "二层": 7983,
      "二届": 7984,
      "二年": 7985,
      "二度": 7986,
      "二战": 7987,
      "二手": 7988,
      "二日": 7989,
      "二月": 7990,
      "二期": 7991,
      "二本": 7992,
      "二条": 7993,
      "二来": 7994,
      "二楼": 7995,
      "二次": 7996,
      "二段": 7997,
      "二流": 7998,
      "二环": 7999,
      "二甲": 8000,
      "二百": 8001,
      "二种": 8002,
      "二章": 8003,
      "二等": 8004,
      "二类": 8005,
      "二级": 8006,
      "二线": 8007,
      "二组": 8008,
      "二维": 8009,
      "二者": 8010,
      "二胎": 8011,
      "二胡": 8012,
      "二路": 8013,
      "二连": 8014,
      "二道": 8015,
      "二郎": 8016,
      "二部": 8017,
      "二重": 8018,
      "二队": 8019,
      "二阶": 8020,
      "二项": 8021,
      "二首": 8022,
      "于今": 8023,
      "于是": 8024,
      "亏了": 8025,
      "亏损": 8026,
      "亏本": 8027,
      "云中": 8028,
      "云云": 8029,
      "云南": 8030,
      "云台": 8031,
      "云天": 8032,
      "云层": 8033,
      "云山": 8034,
      "云彩": 8035,
      "云朵": 8036,
      "云杉": 8037,
      "云梦": 8038,
      "云母": 8039,
      "云海": 8040,
      "云游": 8041,
      "云烟": 8042,
      "云盘": 8043,
      "云端": 8044,
      "云阳": 8045,
      "云集": 8046,
      "云雾": 8047,
      "云霄": 8048,
      "云霞": 8049,
      "云顶": 8050,
      "云龙": 8051,
      "互不": 8052,
      "互为": 8053,
      "互信": 8054,
      "互利": 8055,
      "互动": 8056,
      "互助": 8057,
      "互惠": 8058,
      "互换": 8059,
      "互生": 8060,
      "互相": 8061,
      "互联": 8062,
      "互补": 8063,
      "互连": 8064,
      "互通": 8065,
      "五一": 8066,
      "五七": 8067,
      "五万": 8068,
      "五世": 8069,
      "五个": 8070,
      "五中": 8071,
      "五代": 8072,
      "五位": 8073,
      "五保": 8074,
      "五倍": 8075,
      "五六": 8076,
      "五分": 8077,
      "五十": 8078,
      "五千": 8079,
      "五卷": 8080,
      "五台": 8081,
      "五号": 8082,
      "五名": 8083,
      "五味": 8084,
      "五品": 8085,
      "五四": 8086,
      "五块": 8087,
      "五大": 8088,
      "五天": 8089,
      "五官": 8090,
      "五家": 8091,
      "五层": 8092,
      "五届": 8093,
      "五岁": 8094,
      "五岳": 8095,
      "五峰": 8096,
      "五帝": 8097,
      "五常": 8098,
      "五年": 8099,
      "五座": 8100,
      "五彩": 8101,
      "五成": 8102,
      "五指": 8103,
      "五方": 8104,
      "五日": 8105,
      "五星": 8106,
      "五更": 8107,
      "五月": 8108,
      "五条": 8109,
      "五次": 8110,
      "五洲": 8111,
      "五点": 8112,
      "五环": 8113,
      "五百": 8114,
      "五矿": 8115,
      "五福": 8116,
      "五种": 8117,
      "五笔": 8118,
      "五类": 8119,
      "五级": 8120,
      "五经": 8121,
      "五脏": 8122,
      "五色": 8123,
      "五行": 8124,
      "五言": 8125,
      "五谷": 8126,
      "五路": 8127,
      "五通": 8128,
      "五道": 8129,
      "五郎": 8130,
      "五部": 8131,
      "五里": 8132,
      "五金": 8133,
      "五间": 8134,
      "五项": 8135,
      "五香": 8136,
      "五龙": 8137,
      "井上": 8138,
      "井下": 8139,
      "井口": 8140,
      "井喷": 8141,
      "井水": 8142,
      "井盖": 8143,
      "亘古": 8144,
      "亚丁": 8145,
      "亚东": 8146,
      "亚克": 8147,
      "亚军": 8148,
      "亚太": 8149,
      "亚尔": 8150,
      "亚当": 8151,
      "亚斯": 8152,
      "亚欧": 8153,
      "亚泰": 8154,
      "亚洲": 8155,
      "亚瑟": 8156,
      "亚目": 8157,
      "亚种": 8158,
      "亚科": 8159,
      "亚纲": 8160,
      "亚裔": 8161,
      "亚运": 8162,
      "亚非": 8163,
      "亚麻": 8164,
      "些许": 8165,
      "亟待": 8166,
      "亟需": 8167,
      "亡国": 8168,
      "亡灵": 8169,
      "亢奋": 8170,
      "亢进": 8171,
      "交互": 8172,
      "交付": 8173,
      "交代": 8174,
      "交会": 8175,
      "交出": 8176,
      "交到": 8177,
      "交割": 8178,
      "交办": 8179,
      "交叉": 8180,
      "交友": 8181,
      "交口": 8182,
      "交响": 8183,
      "交大": 8184,
      "交往": 8185,
      "交待": 8186,
      "交情": 8187,
      "交战": 8188,
      "交手": 8189,
      "交投": 8190,
      "交换": 8191,
      "交接": 8192,
      "交收": 8193,
      "交易": 8194,
      "交替": 8195,
      "交汇": 8196,
      "交流": 8197,
      "交涉": 8198,
      "交游": 8199,
      "交火": 8200,
      "交点": 8201,
      "交由": 8202,
      "交界": 8203,
      "交税": 8204,
      "交纳": 8205,
      "交织": 8206,
      "交给": 8207,
      "交联": 8208,
      "交融": 8209,
      "交行": 8210,
      "交警": 8211,
      "交谈": 8212,
      "交货": 8213,
      "交费": 8214,
      "交运": 8215,
      "交通": 8216,
      "交配": 8217,
      "交钱": 8218,
      "交锋": 8219,
      "交错": 8220,
      "交际": 8221,
      "交集": 8222,
      "亦可": 8223,
      "亦庄": 8224,
      "亦然": 8225,
      "亦非": 8226,
      "产下": 8227,
      "产业": 8228,
      "产于": 8229,
      "产值": 8230,
      "产假": 8231,
      "产出": 8232,
      "产区": 8233,
      "产卵": 8234,
      "产后": 8235,
      "产品": 8236,
      "产地": 8237,
      "产妇": 8238,
      "产权": 8239,
      "产物": 8240,
      "产生": 8241,
      "产科": 8242,
      "产能": 8243,
      "产量": 8244,
      "产销": 8245,
      "亨利": 8246,
      "亨特": 8247,
      "亩产": 8248,
      "享乐": 8249,
      "享受": 8250,
      "享年": 8251,
      "享有": 8252,
      "享用": 8253,
      "享誉": 8254,
      "京东": 8255,
      "京兆": 8256,
      "京剧": 8257,
      "京华": 8258,
      "京城": 8259,
      "京师": 8260,
      "京报": 8261,
      "京沪": 8262,
      "京津": 8263,
      "京珠": 8264,
      "京都": 8265,
      "亭子": 8266,
      "亮丽": 8267,
      "亮光": 8268,
      "亮出": 8269,
      "亮化": 8270,
      "亮度": 8271,
      "亮点": 8272,
      "亮相": 8273,
      "亮眼": 8274,
      "亮色": 8275,
      "亲临": 8276,
      "亲亲": 8277,
      "亲人": 8278,
      "亲信": 8279,
      "亲切": 8280,
      "亲历": 8281,
      "亲友": 8282,
      "亲吻": 8283,
      "亲妈": 8284,
      "亲子": 8285,
      "亲密": 8286,
      "亲属": 8287,
      "亲情": 8288,
      "亲戚": 8289,
      "亲手": 8290,
      "亲朋": 8291,
      "亲本": 8292,
      "亲水": 8293,
      "亲热": 8294,
      "亲爱": 8295,
      "亲率": 8296,
      "亲王": 8297,
      "亲生": 8298,
      "亲眼": 8299,
      "亲笔": 8300,
      "亲缘": 8301,
      "亲自": 8302,
      "亲身": 8303,
      "亲近": 8304,
      "亳州": 8305,
      "亵渎": 8306,
      "人世": 8307,
      "人为": 8308,
      "人事": 8309,
      "人人": 8310,
      "人们": 8311,
      "人体": 8312,
      "人偶": 8313,
      "人儿": 8314,
      "人力": 8315,
      "人参": 8316,
      "人口": 8317,
      "人员": 8318,
      "人命": 8319,
      "人品": 8320,
      "人均": 8321,
      "人士": 8322,
      "人声": 8323,
      "人大": 8324,
      "人头": 8325,
      "人妖": 8326,
      "人学": 8327,
      "人家": 8328,
      "人寿": 8329,
      "人居": 8330,
      "人工": 8331,
      "人形": 8332,
      "人影": 8333,
      "人心": 8334,
      "人性": 8335,
      "人情": 8336,
      "人手": 8337,
      "人才": 8338,
      "人数": 8339,
      "人文": 8340,
      "人机": 8341,
      "人权": 8342,
      "人格": 8343,
      "人次": 8344,
      "人民": 8345,
      "人气": 8346,
      "人流": 8347,
      "人渣": 8348,
      "人潮": 8349,
      "人物": 8350,
      "人生": 8351,
      "人眼": 8352,
      "人种": 8353,
      "人称": 8354,
      "人类": 8355,
      "人缘": 8356,
      "人群": 8357,
      "人脑": 8358,
      "人脸": 8359,
      "人行": 8360,
      "人质": 8361,
      "人身": 8362,
      "人选": 8363,
      "人造": 8364,
      "人间": 8365,
      "人防": 8366,
      "人际": 8367,
      "人面": 8368,
      "人马": 8369,
      "亿万": 8370,
      "亿元": 8371,
      "亿吨": 8372,
      "亿多": 8373,
      "亿年": 8374,
      "亿次": 8375,
      "亿股": 8376,
      "什么": 8377,
      "仁义": 8378,
      "仁和": 8379,
      "仁寿": 8380,
      "仁川": 8381,
      "仁德": 8382,
      "仁慈": 8383,
      "仁爱": 8384,
      "仁者": 8385,
      "仄仄": 8386,
      "仅仅": 8387,
      "仆人": 8388,
      "仇人": 8389,
      "仇恨": 8390,
      "仇敌": 8391,
      "仇视": 8392,
      "今世": 8393,
      "今人": 8394,
      "今后": 8395,
      "今夏": 8396,
      "今夜": 8397,
      "今天": 8398,
      "今年": 8399,
      "今日": 8400,
      "今晚": 8401,
      "今朝": 8402,
      "今生": 8403,
      "介于": 8404,
      "介入": 8405,
      "介子": 8406,
      "介导": 8407,
      "介意": 8408,
      "介绍": 8409,
      "介词": 8410,
      "介质": 8411,
      "仍旧": 8412,
      "仍然": 8413,
      "从不": 8414,
      "从业": 8415,
      "从严": 8416,
      "从中": 8417,
      "从事": 8418,
      "从众": 8419,
      "从军": 8420,
      "从前": 8421,
      "从句": 8422,
      "从头": 8423,
      "从容": 8424,
      "从小": 8425,
      "从师": 8426,
      "从政": 8427,
      "从教": 8428,
      "从未": 8429,
      "从来": 8430,
      "从此": 8431,
      "从没": 8432,
      "从而": 8433,
      "从轻": 8434,
      "从重": 8435,
      "仓位": 8436,
      "仓促": 8437,
      "仓储": 8438,
      "仓库": 8439,
      "仓鼠": 8440,
      "仔猪": 8441,
      "仔细": 8442,
      "仕途": 8443,
      "他人": 8444,
      "他们": 8445,
      "他俩": 8446,
      "他家": 8447,
      "仗义": 8448,
      "付出": 8449,
      "付息": 8450,
      "付款": 8451,
      "付清": 8452,
      "付给": 8453,
      "付费": 8454,
      "付钱": 8455,
      "仙人": 8456,
      "仙剑": 8457,
      "仙台": 8458,
      "仙境": 8459,
      "仙女": 8460,
      "仙子": 8461,
      "仙居": 8462,
      "仙山": 8463,
      "仙桃": 8464,
      "仙游": 8465,
      "仙界": 8466,
      "仙鹤": 8467,
      "代为": 8468,
      "代价": 8469,
      "代偿": 8470,
      "代入": 8471,
      "代办": 8472,
      "代号": 8473,
      "代孕": 8474,
      "代尔": 8475,
      "代工": 8476,
      "代收": 8477,
      "代数": 8478,
      "代替": 8479,
      "代步": 8480,
      "代理": 8481,
      "代码": 8482,
      "代称": 8483,
      "代管": 8484,
      "代行": 8485,
      "代表": 8486,
      "代言": 8487,
      "代词": 8488,
      "代谢": 8489,
      "代购": 8490,
      "代销": 8491,
      "令人": 8492,
      "令牌": 8493,
      "令狐": 8494,
      "以上": 8495,
      "以下": 8496,
      "以东": 8497,
      "以为": 8498,
      "以便": 8499,
      "以免": 8500,
      "以内": 8501,
      "以利": 8502,
      "以前": 8503,
      "以北": 8504,
      "以南": 8505,
      "以及": 8506,
      "以后": 8507,
      "以图": 8508,
      "以备": 8509,
      "以外": 8510,
      "以太": 8511,
      "以往": 8512,
      "以待": 8513,
      "以德": 8514,
      "以期": 8515,
      "以来": 8516,
      "以此": 8517,
      "以求": 8518,
      "以示": 8519,
      "以至": 8520,
      "以致": 8521,
      "以西": 8522,
      "以防": 8523,
      "仪器": 8524,
      "仪式": 8525,
      "仪表": 8526,
      "仰卧": 8527,
      "仰天": 8528,
      "仰慕": 8529,
      "仰望": 8530,
      "仰视": 8531,
      "仲裁": 8532,
      "价位": 8533,
      "价值": 8534,
      "价差": 8535,
      "价格": 8536,
      "价款": 8537,
      "价钱": 8538,
      "任一": 8539,
      "任何": 8540,
      "任免": 8541,
      "任内": 8542,
      "任凭": 8543,
      "任务": 8544,
      "任县": 8545,
      "任命": 8546,
      "任性": 8547,
      "任意": 8548,
      "任教": 8549,
      "任期": 8550,
      "任用": 8551,
      "任由": 8552,
      "任职": 8553,
      "任选": 8554,
      "份子": 8555,
      "份量": 8556,
      "份额": 8557,
      "仿佛": 8558,
      "仿制": 8559,
      "仿古": 8560,
      "仿效": 8561,
      "仿照": 8562,
      "仿生": 8563,
      "仿真": 8564,
      "企业": 8565,
      "企划": 8566,
      "企及": 8567,
      "企图": 8568,
      "企鹅": 8569,
      "伊万": 8570,
      "伊人": 8571,
      "伊凡": 8572,
      "伊利": 8573,
      "伊始": 8574,
      "伊尔": 8575,
      "伊斯": 8576,
      "伊朗": 8577,
      "伊犁": 8578,
      "伊索": 8579,
      "伊达": 8580,
      "伎俩": 8581,
      "伏击": 8582,
      "伏笔": 8583,
      "伏羲": 8584,
      "伐木": 8585,
      "休假": 8586,
      "休克": 8587,
      "休养": 8588,
      "休学": 8589,
      "休息": 8590,
      "休憩": 8591,
      "休整": 8592,
      "休斯": 8593,
      "休眠": 8594,
      "休闲": 8595,
      "众人": 8596,
      "众多": 8597,
      "众生": 8598,
      "优于": 8599,
      "优先": 8600,
      "优劣": 8601,
      "优势": 8602,
      "优化": 8603,
      "优厚": 8604,
      "优异": 8605,
      "优待": 8606,
      "优惠": 8607,
      "优抚": 8608,
      "优点": 8609,
      "优生": 8610,
      "优秀": 8611,
      "优美": 8612,
      "优胜": 8613,
      "优良": 8614,
      "优质": 8615,
      "优越": 8616,
      "优选": 8617,
      "优雅": 8618,
      "伙伴": 8619,
      "伙计": 8620,
      "伙食": 8621,
      "会上": 8622,
      "会儿": 8623,
      "会刊": 8624,
      "会务": 8625,
      "会友": 8626,
      "会合": 8627,
      "会同": 8628,
      "会后": 8629,
      "会员": 8630,
      "会商": 8631,
      "会场": 8632,
      "会址": 8633,
      "会堂": 8634,
      "会展": 8635,
      "会师": 8636,
      "会徽": 8637,
      "会心": 8638,
      "会战": 8639,
      "会昌": 8640,
      "会晤": 8641,
      "会考": 8642,
      "会见": 8643,
      "会计": 8644,
      "会议": 8645,
      "会诊": 8646,
      "会试": 8647,
      "会谈": 8648,
      "会费": 8649,
      "会长": 8650,
      "会阴": 8651,
      "会面": 8652,
      "会馆": 8653,
      "伞形": 8654,
      "伟业": 8655,
      "伟人": 8656,
      "伟大": 8657,
      "传世": 8658,
      "传中": 8659,
      "传人": 8660,
      "传入": 8661,
      "传出": 8662,
      "传到": 8663,
      "传动": 8664,
      "传单": 8665,
      "传唱": 8666,
      "传奇": 8667,
      "传媒": 8668,
      "传导": 8669,
      "传开": 8670,
      "传感": 8671,
      "传承": 8672,
      "传授": 8673,
      "传播": 8674,
      "传教": 8675,
      "传来": 8676,
      "传染": 8677,
      "传热": 8678,
      "传球": 8679,
      "传略": 8680,
      "传真": 8681,
      "传神": 8682,
      "传给": 8683,
      "传统": 8684,
      "传言": 8685,
      "传记": 8686,
      "传译": 8687,
      "传说": 8688,
      "传诵": 8689,
      "传输": 8690,
      "传达": 8691,
      "传送": 8692,
      "传递": 8693,
      "传遍": 8694,
      "传道": 8695,
      "传销": 8696,
      "传闻": 8697,
      "伤亡": 8698,
      "伤人": 8699,
      "伤势": 8700,
      "伤及": 8701,
      "伤口": 8702,
      "伤员": 8703,
      "伤害": 8704,
      "伤寒": 8705,
      "伤心": 8706,
      "伤悲": 8707,
      "伤情": 8708,
      "伤感": 8709,
      "伤残": 8710,
      "伤疤": 8711,
      "伤病": 8712,
      "伤痕": 8713,
      "伤痛": 8714,
      "伤者": 8715,
      "伦敦": 8716,
      "伦理": 8717,
      "伪军": 8718,
      "伪装": 8719,
      "伪造": 8720,
      "伫立": 8721,
      "伯乐": 8722,
      "伯伯": 8723,
      "伯恩": 8724,
      "伯格": 8725,
      "伯爵": 8726,
      "伯父": 8727,
      "估价": 8728,
      "估值": 8729,
      "估算": 8730,
      "估计": 8731,
      "伴侣": 8732,
      "伴奏": 8733,
      "伴娘": 8734,
      "伴有": 8735,
      "伴生": 8736,
      "伴随": 8737,
      "伸入": 8738,
      "伸出": 8739,
      "伸向": 8740,
      "伸展": 8741,
      "伸手": 8742,
      "伸直": 8743,
      "伸缩": 8744,
      "伸长": 8745,
      "伺候": 8746,
      "伺服": 8747,
      "伺机": 8748,
      "似乎": 8749,
      "似火": 8750,
      "似的": 8751,
      "伽蓝": 8752,
      "但丁": 8753,
      "但凡": 8754,
      "但愿": 8755,
      "但是": 8756,
      "位于": 8757,
      "位列": 8758,
      "位处": 8759,
      "位子": 8760,
      "位居": 8761,
      "位数": 8762,
      "位点": 8763,
      "位移": 8764,
      "位置": 8765,
      "低下": 8766,
      "低于": 8767,
      "低价": 8768,
      "低估": 8769,
      "低位": 8770,
      "低俗": 8771,
      "低保": 8772,
      "低分": 8773,
      "低劣": 8774,
      "低压": 8775,
      "低声": 8776,
      "低头": 8777,
      "低层": 8778,
      "低廉": 8779,
      "低效": 8780,
      "低档": 8781,
      "低沉": 8782,
      "低洼": 8783,
      "低温": 8784,
      "低潮": 8785,
      "低点": 8786,
      "低矮": 8787,
      "低空": 8788,
      "低端": 8789,
      "低等": 8790,
      "低级": 8791,
      "低落": 8792,
      "低调": 8793,
      "低谷": 8794,
      "低迷": 8795,
      "低速": 8796,
      "低音": 8797,
      "低频": 8798,
      "住址": 8799,
      "住处": 8800,
      "住宅": 8801,
      "住宿": 8802,
      "住户": 8803,
      "住房": 8804,
      "住所": 8805,
      "住持": 8806,
      "住校": 8807,
      "住院": 8808,
      "佐料": 8809,
      "佐藤": 8810,
      "佐证": 8811,
      "体会": 8812,
      "体位": 8813,
      "体例": 8814,
      "体内": 8815,
      "体制": 8816,
      "体力": 8817,
      "体味": 8818,
      "体坛": 8819,
      "体型": 8820,
      "体外": 8821,
      "体委": 8822,
      "体式": 8823,
      "体弱": 8824,
      "体形": 8825,
      "体彩": 8826,
      "体征": 8827,
      "体态": 8828,
      "体悟": 8829,
      "体操": 8830,
      "体校": 8831,
      "体格": 8832,
      "体检": 8833,
      "体液": 8834,
      "体温": 8835,
      "体现": 8836,
      "体积": 8837,
      "体系": 8838,
      "体罚": 8839,
      "体育": 8840,
      "体能": 8841,
      "体色": 8842,
      "体虚": 8843,
      "体表": 8844,
      "体裁": 8845,
      "体谅": 8846,
      "体质": 8847,
      "体贴": 8848,
      "体重": 8849,
      "体量": 8850,
      "体长": 8851,
      "体面": 8852,
      "体验": 8853,
      "体魄": 8854,
      "何不": 8855,
      "何为": 8856,
      "何事": 8857,
      "何人": 8858,
      "何以": 8859,
      "何其": 8860,
      "何况": 8861,
      "何在": 8862,
      "何处": 8863,
      "何如": 8864,
      "何妨": 8865,
      "何尝": 8866,
      "何必": 8867,
      "何故": 8868,
      "何方": 8869,
      "何日": 8870,
      "何时": 8871,
      "何来": 8872,
      "何止": 8873,
      "何物": 8874,
      "何用": 8875,
      "何种": 8876,
      "何等": 8877,
      "何苦": 8878,
      "何谓": 8879,
      "何须": 8880,
      "余万": 8881,
      "余下": 8882,
      "余个": 8883,
      "余亩": 8884,
      "余件": 8885,
      "余位": 8886,
      "余元": 8887,
      "余台": 8888,
      "余名": 8889,
      "余地": 8890,
      "余处": 8891,
      "余姚": 8892,
      "余家": 8893,
      "余幅": 8894,
      "余年": 8895,
      "余户": 8896,
      "余条": 8897,
      "余杭": 8898,
      "余次": 8899,
      "余款": 8900,
      "余热": 8901,
      "余生": 8902,
      "余种": 8903,
      "余篇": 8904,
      "余米": 8905,
      "余脉": 8906,
      "余部": 8907,
      "余间": 8908,
      "余项": 8909,
      "余额": 8910,
      "佚名": 8911,
      "佛像": 8912,
      "佛光": 8913,
      "佛堂": 8914,
      "佛塔": 8915,
      "佛学": 8916,
      "佛家": 8917,
      "佛寺": 8918,
      "佛山": 8919,
      "佛手": 8920,
      "佛教": 8921,
      "佛殿": 8922,
      "佛法": 8923,
      "佛珠": 8924,
      "佛祖": 8925,
      "佛经": 8926,
      "佛门": 8927,
      "佛陀": 8928,
      "作业": 8929,
      "作为": 8930,
      "作乱": 8931,
      "作价": 8932,
      "作假": 8933,
      "作出": 8934,
      "作协": 8935,
      "作品": 8936,
      "作响": 8937,
      "作图": 8938,
      "作坊": 8939,
      "作好": 8940,
      "作客": 8941,
      "作家": 8942,
      "作对": 8943,
      "作序": 8944,
      "作废": 8945,
      "作弊": 8946,
      "作怪": 8947,
      "作息": 8948,
      "作恶": 8949,
      "作成": 8950,
      "作战": 8951,
      "作文": 8952,
      "作曲": 8953,
      "作案": 8954,
      "作法": 8955,
      "作物": 8956,
      "作用": 8957,
      "作画": 8958,
      "作祟": 8959,
      "作答": 8960,
      "作罢": 8961,
      "作者": 8962,
      "作证": 8963,
      "作词": 8964,
      "作风": 8965,
      "你们": 8966,
      "你好": 8967,
      "你家": 8968,
      "佣金": 8969,
      "佤族": 8970,
      "佩兰": 8971,
      "佩尔": 8972,
      "佩带": 8973,
      "佩戴": 8974,
      "佩服": 8975,
      "佩里": 8976,
      "佳丽": 8977,
      "佳人": 8978,
      "佳作": 8979,
      "佳句": 8980,
      "佳品": 8981,
      "佳绩": 8982,
      "佳肴": 8983,
      "佳能": 8984,
      "佳节": 8985,
      "佳话": 8986,
      "使出": 8987,
      "使劲": 8988,
      "使君": 8989,
      "使命": 8990,
      "使徒": 8991,
      "使得": 8992,
      "使然": 8993,
      "使用": 8994,
      "使者": 8995,
      "使臣": 8996,
      "使节": 8997,
      "使馆": 8998,
      "侄女": 8999,
      "侄子": 9000,
      "例会": 9001,
      "例句": 9002,
      "例外": 9003,
      "例如": 9004,
      "例子": 9005,
      "例行": 9006,
      "例证": 9007,
      "例题": 9008,
      "侍中": 9009,
      "侍从": 9010,
      "侍卫": 9011,
      "侍奉": 9012,
      "侍女": 9013,
      "侍郎": 9014,
      "侏儒": 9015,
      "侗族": 9016,
      "供养": 9017,
      "供奉": 9018,
      "供应": 9019,
      "供暖": 9020,
      "供气": 9021,
      "供水": 9022,
      "供求": 9023,
      "供油": 9024,
      "供热": 9025,
      "供电": 9026,
      "供给": 9027,
      "供职": 9028,
      "供货": 9029,
      "供述": 9030,
      "供销": 9031,
      "供需": 9032,
      "依依": 9033,
      "依偎": 9034,
      "依恋": 9035,
      "依托": 9036,
      "依据": 9037,
      "依旧": 9038,
      "依次": 9039,
      "依法": 9040,
      "依然": 9041,
      "依照": 9042,
      "依稀": 9043,
      "依赖": 9044,
      "依附": 9045,
      "依靠": 9046,
      "侠义": 9047,
      "侠客": 9048,
      "侠盗": 9049,
      "侥幸": 9050,
      "侦办": 9051,
      "侦察": 9052,
      "侦探": 9053,
      "侦查": 9054,
      "侦测": 9055,
      "侦破": 9056,
      "侧向": 9057,
      "侧枝": 9058,
      "侧线": 9059,
      "侧翼": 9060,
      "侧身": 9061,
      "侧边": 9062,
      "侧重": 9063,
      "侧面": 9064,
      "侨乡": 9065,
      "侨务": 9066,
      "侨民": 9067,
      "侨眷": 9068,
      "侨联": 9069,
      "侮辱": 9070,
      "侯爵": 9071,
      "侵入": 9072,
      "侵华": 9073,
      "侵占": 9074,
      "侵害": 9075,
      "侵扰": 9076,
      "侵权": 9077,
      "侵染": 9078,
      "侵犯": 9079,
      "侵略": 9080,
      "侵蚀": 9081,
      "侵袭": 9082,
      "便于": 9083,
      "便利": 9084,
      "便宜": 9085,
      "便当": 9086,
      "便捷": 9087,
      "便携": 9088,
      "便是": 9089,
      "便民": 9090,
      "便秘": 9091,
      "便血": 9092,
      "促使": 9093,
      "促成": 9094,
      "促进": 9095,
      "促销": 9096,
      "俄军": 9097,
      "俄国": 9098,
      "俄文": 9099,
      "俄语": 9100,
      "俊朗": 9101,
      "俊杰": 9102,
      "俊秀": 9103,
      "俊美": 9104,
      "俏皮": 9105,
      "俗世": 9106,
      "俗名": 9107,
      "俗套": 9108,
      "俗气": 9109,
      "俗称": 9110,
      "俗语": 9111,
      "俘获": 9112,
      "俘虏": 9113,
      "保住": 9114,
      "保佑": 9115,
      "保修": 9116,
      "保值": 9117,
      "保健": 9118,
      "保全": 9119,
      "保养": 9120,
      "保利": 9121,
      "保单": 9122,
      "保卫": 9123,
      "保命": 9124,
      "保姆": 9125,
      "保存": 9126,
      "保守": 9127,
      "保安": 9128,
      "保定": 9129,
      "保密": 9130,
      "保山": 9131,
      "保底": 9132,
      "保护": 9133,
      "保持": 9134,
      "保暖": 9135,
      "保有": 9136,
      "保本": 9137,
      "保洁": 9138,
      "保温": 9139,
      "保湿": 9140,
      "保留": 9141,
      "保税": 9142,
      "保管": 9143,
      "保级": 9144,
      "保罗": 9145,
      "保育": 9146,
      "保荐": 9147,
      "保证": 9148,
      "保费": 9149,
      "保送": 9150,
      "保镖": 9151,
      "保险": 9152,
      "保障": 9153,
      "保额": 9154,
      "保鲜": 9155,
      "信义": 9156,
      "信令": 9157,
      "信仰": 9158,
      "信件": 9159,
      "信任": 9160,
      "信众": 9161,
      "信佛": 9162,
      "信使": 9163,
      "信函": 9164,
      "信号": 9165,
      "信奉": 9166,
      "信守": 9167,
      "信封": 9168,
      "信徒": 9169,
      "信心": 9170,
      "信念": 9171,
      "信息": 9172,
      "信托": 9173,
      "信教": 9174,
      "信服": 9175,
      "信条": 9176,
      "信物": 9177,
      "信用": 9178,
      "信箱": 9179,
      "信誉": 9180,
      "信访": 9181,
      "信贷": 9182,
      "信赖": 9183,
      "信道": 9184,
      "信阳": 9185,
      "俨然": 9186,
      "修习": 9187,
      "修仙": 9188,
      "修养": 9189,
      "修剪": 9190,
      "修士": 9191,
      "修复": 9192,
      "修女": 9193,
      "修好": 9194,
      "修学": 9195,
      "修建": 9196,
      "修成": 9197,
      "修护": 9198,
      "修改": 9199,
      "修整": 9200,
      "修正": 9201,
      "修炼": 9202,
      "修理": 9203,
      "修筑": 9204,
      "修编": 9205,
      "修缮": 9206,
      "修葺": 9207,
      "修行": 9208,
      "修补": 9209,
      "修订": 9210,
      "修路": 9211,
      "修身": 9212,
      "修车": 9213,
      "修辞": 9214,
      "修造": 9215,
      "修道": 9216,
      "修长": 9217,
      "修饰": 9218,
      "俯仰": 9219,
      "俯冲": 9220,
      "俯瞰": 9221,
      "俯视": 9222,
      "俱佳": 9223,
      "俱全": 9224,
      "俸禄": 9225,
      "倍加": 9226,
      "倍受": 9227,
      "倍增": 9228,
      "倍感": 9229,
      "倍数": 9230,
      "倍率": 9231,
      "倒下": 9232,
      "倒伏": 9233,
      "倒入": 9234,
      "倒卖": 9235,
      "倒地": 9236,
      "倒塌": 9237,
      "倒影": 9238,
      "倒挂": 9239,
      "倒掉": 9240,
      "倒数": 9241,
      "倒流": 9242,
      "倒立": 9243,
      "倒置": 9244,
      "倒车": 9245,
      "倒退": 9246,
      "倒逼": 9247,
      "倒闭": 9248,
      "倒霉": 9249,
      "倔强": 9250,
      "倘若": 9251,
      "候补": 9252,
      "候车": 9253,
      "候选": 9254,
      "候鸟": 9255,
      "借以": 9256,
      "借力": 9257,
      "借助": 9258,
      "借势": 9259,
      "借口": 9260,
      "借机": 9261,
      "借条": 9262,
      "借来": 9263,
      "借款": 9264,
      "借此": 9265,
      "借用": 9266,
      "借着": 9267,
      "借给": 9268,
      "借调": 9269,
      "借贷": 9270,
      "借鉴": 9271,
      "借钱": 9272,
      "借阅": 9273,
      "倡导": 9274,
      "倡议": 9275,
      "倦怠": 9276,
      "倭寇": 9277,
      "债主": 9278,
      "债券": 9279,
      "债务": 9280,
      "债市": 9281,
      "债权": 9282,
      "值守": 9283,
      "值得": 9284,
      "值班": 9285,
      "值钱": 9286,
      "倾倒": 9287,
      "倾力": 9288,
      "倾向": 9289,
      "倾听": 9290,
      "倾城": 9291,
      "倾尽": 9292,
      "倾心": 9293,
      "倾情": 9294,
      "倾斜": 9295,
      "倾注": 9296,
      "倾泻": 9297,
      "倾覆": 9298,
      "倾角": 9299,
      "倾诉": 9300,
      "假体": 9301,
      "假使": 9302,
      "假借": 9303,
      "假冒": 9304,
      "假发": 9305,
      "假名": 9306,
      "假如": 9307,
      "假定": 9308,
      "假山": 9309,
      "假币": 9310,
      "假想": 9311,
      "假扮": 9312,
      "假日": 9313,
      "假期": 9314,
      "假若": 9315,
      "假装": 9316,
      "假设": 9317,
      "假话": 9318,
      "假说": 9319,
      "假象": 9320,
      "假货": 9321,
      "假释": 9322,
      "假面": 9323,
      "偌大": 9324,
      "偏偏": 9325,
      "偏僻": 9326,
      "偏南": 9327,
      "偏向": 9328,
      "偏好": 9329,
      "偏差": 9330,
      "偏心": 9331,
      "偏执": 9332,
      "偏振": 9333,
      "偏斜": 9334,
      "偏方": 9335,
      "偏激": 9336,
      "偏爱": 9337,
      "偏瘫": 9338,
      "偏离": 9339,
      "偏移": 9340,
      "偏西": 9341,
      "偏要": 9342,
      "偏见": 9343,
      "偏转": 9344,
      "偏远": 9345,
      "偏重": 9346,
      "偏颇": 9347,
      "偏食": 9348,
      "做主": 9349,
      "做事": 9350,
      "做人": 9351,
      "做作": 9352,
      "做做": 9353,
      "做出": 9354,
      "做到": 9355,
      "做好": 9356,
      "做官": 9357,
      "做客": 9358,
      "做工": 9359,
      "做成": 9360,
      "做梦": 9361,
      "做法": 9362,
      "做爱": 9363,
      "做菜": 9364,
      "做起": 9365,
      "做饭": 9366,
      "停下": 9367,
      "停业": 9368,
      "停产": 9369,
      "停刊": 9370,
      "停办": 9371,
      "停工": 9372,
      "停战": 9373,
      "停放": 9374,
      "停机": 9375,
      "停歇": 9376,
      "停止": 9377,
      "停水": 9378,
      "停泊": 9379,
      "停滞": 9380,
      "停火": 9381,
      "停牌": 9382,
      "停用": 9383,
      "停电": 9384,
      "停留": 9385,
      "停课": 9386,
      "停车": 9387,
      "停运": 9388,
      "停靠": 9389,
      "停顿": 9390,
      "健体": 9391,
      "健全": 9392,
      "健在": 9393,
      "健壮": 9394,
      "健康": 9395,
      "健忘": 9396,
      "健美": 9397,
      "健胃": 9398,
      "健身": 9399,
      "偶像": 9400,
      "偶尔": 9401,
      "偶数": 9402,
      "偶然": 9403,
      "偶遇": 9404,
      "偷偷": 9405,
      "偷懒": 9406,
      "偷拍": 9407,
      "偷渡": 9408,
      "偷盗": 9409,
      "偷看": 9410,
      "偷窃": 9411,
      "偷窥": 9412,
      "偷袭": 9413,
      "偷走": 9414,
      "偿付": 9415,
      "偿债": 9416,
      "偿还": 9417,
      "傀儡": 9418,
      "傍晚": 9419,
      "傣族": 9420,
      "储备": 9421,
      "储存": 9422,
      "储户": 9423,
      "储粮": 9424,
      "储罐": 9425,
      "储能": 9426,
      "储蓄": 9427,
      "储藏": 9428,
      "储运": 9429,
      "储量": 9430,
      "催促": 9431,
      "催化": 9432,
      "催收": 9433,
      "催生": 9434,
      "催眠": 9435,
      "傲慢": 9436,
      "傲视": 9437,
      "傻子": 9438,
      "傻瓜": 9439,
      "像是": 9440,
      "像样": 9441,
      "像素": 9442,
      "僧人": 9443,
      "僧众": 9444,
      "僧侣": 9445,
      "僵化": 9446,
      "僵尸": 9447,
      "僵局": 9448,
      "僵持": 9449,
      "僵硬": 9450,
      "儋州": 9451,
      "儒学": 9452,
      "儒家": 9453,
      "儒林": 9454,
      "儒雅": 9455,
      "儿女": 9456,
      "儿媳": 9457,
      "儿子": 9458,
      "儿孙": 9459,
      "儿时": 9460,
      "儿歌": 9461,
      "儿科": 9462,
      "儿童": 9463,
      "允许": 9464,
      "元丰": 9465,
      "元代": 9466,
      "元件": 9467,
      "元凶": 9468,
      "元始": 9469,
      "元宝": 9470,
      "元宵": 9471,
      "元帅": 9472,
      "元年": 9473,
      "元旦": 9474,
      "元月": 9475,
      "元朗": 9476,
      "元朝": 9477,
      "元气": 9478,
      "元素": 9479,
      "元老": 9480,
      "元音": 9481,
      "元首": 9482,
      "兄妹": 9483,
      "兄弟": 9484,
      "兄长": 9485,
      "充值": 9486,
      "充分": 9487,
      "充填": 9488,
      "充实": 9489,
      "充当": 9490,
      "充斥": 9491,
      "充气": 9492,
      "充沛": 9493,
      "充满": 9494,
      "充电": 9495,
      "充盈": 9496,
      "充血": 9497,
      "充裕": 9498,
      "充足": 9499,
      "充饥": 9500,
      "兆瓦": 9501,
      "先于": 9502,
      "先人": 9503,
      "先例": 9504,
      "先兆": 9505,
      "先前": 9506,
      "先后": 9507,
      "先天": 9508,
      "先导": 9509,
      "先帝": 9510,
      "先是": 9511,
      "先期": 9512,
      "先机": 9513,
      "先民": 9514,
      "先河": 9515,
      "先烈": 9516,
      "先王": 9517,
      "先生": 9518,
      "先知": 9519,
      "先祖": 9520,
      "先秦": 9521,
      "先端": 9522,
      "先行": 9523,
      "先贤": 9524,
      "先辈": 9525,
      "先进": 9526,
      "先锋": 9527,
      "先驱": 9528,
      "光临": 9529,
      "光亮": 9530,
      "光伏": 9531,
      "光华": 9532,
      "光合": 9533,
      "光圈": 9534,
      "光复": 9535,
      "光大": 9536,
      "光头": 9537,
      "光子": 9538,
      "光学": 9539,
      "光州": 9540,
      "光年": 9541,
      "光度": 9542,
      "光彩": 9543,
      "光影": 9544,
      "光敏": 9545,
      "光明": 9546,
      "光是": 9547,
      "光景": 9548,
      "光束": 9549,
      "光栅": 9550,
      "光标": 9551,
      "光棍": 9552,
      "光波": 9553,
      "光泽": 9554,
      "光洁": 9555,
      "光源": 9556,
      "光滑": 9557,
      "光灯": 9558,
      "光热": 9559,
      "光照": 9560,
      "光环": 9561,
      "光电": 9562,
      "光盘": 9563,
      "光碟": 9564,
      "光纤": 9565,
      "光线": 9566,
      "光绪": 9567,
      "光缆": 9568,
      "光耀": 9569,
      "光芒": 9570,
      "光荣": 9571,
      "光谱": 9572,
      "光谷": 9573,
      "光辉": 9574,
      "光速": 9575,
      "光阴": 9576,
      "光顾": 9577,
      "光驱": 9578,
      "光鲜": 9579,
      "克利": 9580,
      "克制": 9581,
      "克劳": 9582,
      "克尔": 9583,
      "克拉": 9584,
      "克斯": 9585,
      "克星": 9586,
      "克服": 9587,
      "克罗": 9588,
      "克莱": 9589,
      "克里": 9590,
      "克隆": 9591,
      "免于": 9592,
      "免冠": 9593,
      "免去": 9594,
      "免受": 9595,
      "免征": 9596,
      "免得": 9597,
      "免收": 9598,
      "免检": 9599,
      "免疫": 9600,
      "免税": 9601,
      "免签": 9602,
      "免职": 9603,
      "免试": 9604,
      "免责": 9605,
      "免费": 9606,
      "免遭": 9607,
      "免除": 9608,
      "兑付": 9609,
      "兑奖": 9610,
      "兑换": 9611,
      "兑现": 9612,
      "兔子": 9613,
      "兔肉": 9614,
      "兖州": 9615,
      "党内": 9616,
      "党务": 9617,
      "党参": 9618,
      "党史": 9619,
      "党员": 9620,
      "党团": 9621,
      "党外": 9622,
      "党委": 9623,
      "党建": 9624,
      "党性": 9625,
      "党政": 9626,
      "党校": 9627,
      "党派": 9628,
      "党章": 9629,
      "党籍": 9630,
      "党纪": 9631,
      "党组": 9632,
      "党群": 9633,
      "党部": 9634,
      "党风": 9635,
      "兜兜": 9636,
      "兜底": 9637,
      "兜里": 9638,
      "入世": 9639,
      "入主": 9640,
      "入伍": 9641,
      "入会": 9642,
      "入住": 9643,
      "入侵": 9644,
      "入党": 9645,
      "入关": 9646,
      "入冬": 9647,
      "入口": 9648,
      "入味": 9649,
      "入围": 9650,
      "入场": 9651,
      "入境": 9652,
      "入学": 9653,
      "入室": 9654,
      "入市": 9655,
      "入库": 9656,
      "入户": 9657,
      "入手": 9658,
      "入校": 9659,
      "入海": 9660,
      "入狱": 9661,
      "入球": 9662,
      "入眠": 9663,
      "入睡": 9664,
      "入网": 9665,
      "入股": 9666,
      "入药": 9667,
      "入账": 9668,
      "入选": 9669,
      "入门": 9670,
      "入院": 9671,
      "入驻": 9672,
      "全乡": 9673,
      "全书": 9674,
      "全会": 9675,
      "全体": 9676,
      "全党": 9677,
      "全军": 9678,
      "全剧": 9679,
      "全力": 9680,
      "全区": 9681,
      "全县": 9682,
      "全名": 9683,
      "全员": 9684,
      "全园": 9685,
      "全国": 9686,
      "全场": 9687,
      "全城": 9688,
      "全境": 9689,
      "全天": 9690,
      "全套": 9691,
      "全家": 9692,
      "全局": 9693,
      "全岛": 9694,
      "全州": 9695,
      "全市": 9696,
      "全年": 9697,
      "全开": 9698,
      "全彩": 9699,
      "全息": 9700,
      "全数": 9701,
      "全文": 9702,
      "全新": 9703,
      "全日": 9704,
      "全景": 9705,
      "全本": 9706,
      "全权": 9707,
      "全村": 9708,
      "全校": 9709,
      "全歼": 9710,
      "全民": 9711,
      "全港": 9712,
      "全然": 9713,
      "全班": 9714,
      "全球": 9715,
      "全盘": 9716,
      "全省": 9717,
      "全真": 9718,
      "全科": 9719,
      "全称": 9720,
      "全程": 9721,
      "全篇": 9722,
      "全线": 9723,
      "全网": 9724,
      "全美": 9725,
      "全职": 9726,
      "全胜": 9727,
      "全能": 9728,
      "全貌": 9729,
      "全资": 9730,
      "全身": 9731,
      "全部": 9732,
      "全都": 9733,
      "全镇": 9734,
      "全长": 9735,
      "全队": 9736,
      "全院": 9737,
      "全集": 9738,
      "全面": 9739,
      "全额": 9740,
      "全麦": 9741,
      "八一": 9742,
      "八个": 9743,
      "八中": 9744,
      "八五": 9745,
      "八仙": 9746,
      "八位": 9747,
      "八分": 9748,
      "八十": 9749,
      "八千": 9750,
      "八卦": 9751,
      "八卷": 9752,
      "八号": 9753,
      "八名": 9754,
      "八大": 9755,
      "八字": 9756,
      "八宝": 9757,
      "八届": 9758,
      "八岁": 9759,
      "八年": 9760,
      "八度": 9761,
      "八强": 9762,
      "八成": 9763,
      "八戒": 9764,
      "八方": 9765,
      "八旗": 9766,
      "八日": 9767,
      "八景": 9768,
      "八月": 9769,
      "八条": 9770,
      "八次": 9771,
      "八点": 9772,
      "八百": 9773,
      "八种": 9774,
      "八章": 9775,
      "八级": 9776,
      "八荒": 9777,
      "八角": 9778,
      "八路": 9779,
      "八里": 9780,
      "八项": 9781,
      "公主": 9782,
      "公事": 9783,
      "公交": 9784,
      "公仔": 9785,
      "公众": 9786,
      "公会": 9787,
      "公使": 9788,
      "公信": 9789,
      "公债": 9790,
      "公允": 9791,
      "公元": 9792,
      "公公": 9793,
      "公共": 9794,
      "公关": 9795,
      "公分": 9796,
      "公办": 9797,
      "公务": 9798,
      "公卿": 9799,
      "公历": 9800,
      "公厕": 9801,
      "公司": 9802,
      "公告": 9803,
      "公园": 9804,
      "公国": 9805,
      "公墓": 9806,
      "公婆": 9807,
      "公子": 9808,
      "公孙": 9809,
      "公学": 9810,
      "公安": 9811,
      "公家": 9812,
      "公寓": 9813,
      "公尺": 9814,
      "公差": 9815,
      "公布": 9816,
      "公平": 9817,
      "公开": 9818,
      "公式": 9819,
      "公房": 9820,
      "公所": 9821,
      "公投": 9822,
      "公报": 9823,
      "公文": 9824,
      "公斤": 9825,
      "公映": 9826,
      "公有": 9827,
      "公案": 9828,
      "公款": 9829,
      "公正": 9830,
      "公民": 9831,
      "公派": 9832,
      "公演": 9833,
      "公然": 9834,
      "公爵": 9835,
      "公牛": 9836,
      "公理": 9837,
      "公用": 9838,
      "公益": 9839,
      "公示": 9840,
      "公社": 9841,
      "公私": 9842,
      "公积": 9843,
      "公称": 9844,
      "公立": 9845,
      "公章": 9846,
      "公约": 9847,
      "公署": 9848,
      "公羊": 9849,
      "公职": 9850,
      "公认": 9851,
      "公证": 9852,
      "公诉": 9853,
      "公路": 9854,
      "公车": 9855,
      "公转": 9856,
      "公道": 9857,
      "公里": 9858,
      "公顷": 9859,
      "公馆": 9860,
      "公鸡": 9861,
      "六一": 9862,
      "六七": 9863,
      "六世": 9864,
      "六个": 9865,
      "六中": 9866,
      "六五": 9867,
      "六位": 9868,
      "六十": 9869,
      "六卷": 9870,
      "六号": 9871,
      "六合": 9872,
      "六名": 9873,
      "六大": 9874,
      "六天": 9875,
      "六安": 9876,
      "六家": 9877,
      "六层": 9878,
      "六届": 9879,
      "六岁": 9880,
      "六年": 9881,
      "六成": 9882,
      "六日": 9883,
      "六月": 9884,
      "六朝": 9885,
      "六条": 9886,
      "六次": 9887,
      "六点": 9888,
      "六百": 9889,
      "六种": 9890,
      "六章": 9891,
      "六级": 9892,
      "六经": 9893,
      "六角": 9894,
      "六路": 9895,
      "六道": 9896,
      "六部": 9897,
      "六项": 9898,
      "兰亭": 9899,
      "兰州": 9900,
      "兰德": 9901,
      "兰斯": 9902,
      "兰溪": 9903,
      "兰特": 9904,
      "兰花": 9905,
      "兰陵": 9906,
      "共事": 9907,
      "共享": 9908,
      "共创": 9909,
      "共勉": 9910,
      "共同": 9911,
      "共和": 9912,
      "共处": 9913,
      "共存": 9914,
      "共度": 9915,
      "共建": 9916,
      "共性": 9917,
      "共振": 9918,
      "共有": 9919,
      "共生": 9920,
      "共用": 9921,
      "共计": 9922,
      "共识": 9923,
      "共谋": 9924,
      "共通": 9925,
      "共鸣": 9926,
      "关上": 9927,
      "关东": 9928,
      "关中": 9929,
      "关乎": 9930,
      "关于": 9931,
      "关停": 9932,
      "关公": 9933,
      "关内": 9934,
      "关切": 9935,
      "关卡": 9936,
      "关口": 9937,
      "关外": 9938,
      "关头": 9939,
      "关山": 9940,
      "关岛": 9941,
      "关心": 9942,
      "关怀": 9943,
      "关押": 9944,
      "关掉": 9945,
      "关机": 9946,
      "关注": 9947,
      "关照": 9948,
      "关爱": 9949,
      "关税": 9950,
      "关系": 9951,
      "关羽": 9952,
      "关联": 9953,
      "关节": 9954,
      "关西": 9955,
      "关进": 9956,
      "关键": 9957,
      "关门": 9958,
      "关闭": 9959,
      "兴业": 9960,
      "兴义": 9961,
      "兴亡": 9962,
      "兴办": 9963,
      "兴化": 9964,
      "兴华": 9965,
      "兴县": 9966,
      "兴国": 9967,
      "兴奋": 9968,
      "兴宁": 9969,
      "兴安": 9970,
      "兴建": 9971,
      "兴旺": 9972,
      "兴盛": 9973,
      "兴致": 9974,
      "兴衰": 9975,
      "兴起": 9976,
      "兴趣": 9977,
      "兴隆": 9978,
      "兵力": 9979,
      "兵变": 9980,
      "兵器": 9981,
      "兵团": 9982,
      "兵家": 9983,
      "兵役": 9984,
      "兵法": 9985,
      "兵种": 9986,
      "兵营": 9987,
      "兵部": 9988,
      "兵马": 9989,
      "其一": 9990,
      "其三": 9991,
      "其中": 9992,
      "其二": 9993,
      "其他": 9994,
      "其余": 9995,
      "其内": 9996,
      "其后": 9997,
      "其四": 9998,
      "其妻": 9999,
      "其子": 10000,
      "其它": 10001,
      "其实": 10002,
      "其意": 10003,
      "其时": 10004,
      "其次": 10005,
      "其父": 10006,
      "其间": 10007,
      "具体": 10008,
      "具备": 10009,
      "具有": 10010,
      "具象": 10011,
      "典型": 10012,
      "典当": 10013,
      "典故": 10014,
      "典礼": 10015,
      "典籍": 10016,
      "典范": 10017,
      "典藏": 10018,
      "典雅": 10019,
      "养分": 10020,
      "养女": 10021,
      "养子": 10022,
      "养家": 10023,
      "养心": 10024,
      "养成": 10025,
      "养护": 10026,
      "养殖": 10027,
      "养母": 10028,
      "养活": 10029,
      "养父": 10030,
      "养牛": 10031,
      "养猪": 10032,
      "养生": 10033,
      "养眼": 10034,
      "养羊": 10035,
      "养老": 10036,
      "养育": 10037,
      "养花": 10038,
      "养蚕": 10039,
      "养身": 10040,
      "养车": 10041,
      "养鱼": 10042,
      "养鸡": 10043,
      "兼任": 10044,
      "兼具": 10045,
      "兼备": 10046,
      "兼容": 10047,
      "兼并": 10048,
      "兼得": 10049,
      "兼有": 10050,
      "兼职": 10051,
      "兼营": 10052,
      "兼顾": 10053,
      "兽医": 10054,
      "兽类": 10055,
      "兽药": 10056,
      "冀东": 10057,
      "冀中": 10058,
      "冀州": 10059,
      "内丹": 10060,
      "内乱": 10061,
      "内伤": 10062,
      "内侧": 10063,
      "内力": 10064,
      "内功": 10065,
      "内务": 10066,
      "内化": 10067,
      "内参": 10068,
      "内向": 10069,
      "内含": 10070,
      "内因": 10071,
      "内圈": 10072,
      "内在": 10073,
      "内地": 10074,
      "内城": 10075,
      "内墙": 10076,
      "内壁": 10077,
      "内外": 10078,
      "内存": 10079,
      "内容": 10080,
      "内尔": 10081,
      "内层": 10082,
      "内嵌": 10083,
      "内幕": 10084,
      "内应": 10085,
      "内径": 10086,
      "内心": 10087,
      "内战": 10088,
      "内控": 10089,
      "内政": 10090,
      "内敛": 10091,
      "内斯": 10092,
      "内服": 10093,
      "内核": 10094,
      "内江": 10095,
      "内河": 10096,
      "内测": 10097,
      "内涝": 10098,
      "内涵": 10099,
      "内热": 10100,
      "内环": 10101,
      "内生": 10102,
      "内疚": 10103,
      "内皮": 10104,
      "内科": 10105,
      "内线": 10106,
      "内经": 10107,
      "内置": 10108,
      "内胆": 10109,
      "内能": 10110,
      "内脏": 10111,
      "内膜": 10112,
      "内蒙": 10113,
      "内行": 10114,
      "内衣": 10115,
      "内衬": 10116,
      "内裤": 10117,
      "内设": 10118,
      "内资": 10119,
      "内部": 10120,
      "内酯": 10121,
      "内里": 10122,
      "内销": 10123,
      "内镜": 10124,
      "内阁": 10125,
      "内陆": 10126,
      "内需": 10127,
      "内面": 10128,
      "册封": 10129,
      "再三": 10130,
      "再也": 10131,
      "再创": 10132,
      "再婚": 10133,
      "再审": 10134,
      "再度": 10135,
      "再战": 10136,
      "再有": 10137,
      "再次": 10138,
      "再版": 10139,
      "再现": 10140,
      "再生": 10141,
      "再者": 10142,
      "再行": 10143,
      "再见": 10144,
      "再说": 10145,
      "再起": 10146,
      "再造": 10147,
      "冒充": 10148,
      "冒烟": 10149,
      "冒犯": 10150,
      "冒用": 10151,
      "冒险": 10152,
      "冗余": 10153,
      "冗长": 10154,
      "写下": 10155,
      "写作": 10156,
      "写信": 10157,
      "写入": 10158,
      "写写": 10159,
      "写出": 10160,
      "写字": 10161,
      "写实": 10162,
      "写意": 10163,
      "写成": 10164,
      "写手": 10165,
      "写明": 10166,
      "写景": 10167,
      "写法": 10168,
      "写照": 10169,
      "写生": 10170,
      "写真": 10171,
      "写给": 10172,
      "写诗": 10173,
      "写道": 10174,
      "军中": 10175,
      "军事": 10176,
      "军人": 10177,
      "军力": 10178,
      "军功": 10179,
      "军务": 10180,
      "军区": 10181,
      "军医": 10182,
      "军品": 10183,
      "军团": 10184,
      "军士": 10185,
      "军备": 10186,
      "军委": 10187,
      "军官": 10188,
      "军工": 10189,
      "军师": 10190,
      "军情": 10191,
      "军政": 10192,
      "军方": 10193,
      "军旅": 10194,
      "军旗": 10195,
      "军服": 10196,
      "军机": 10197,
      "军校": 10198,
      "军械": 10199,
      "军民": 10200,
      "军火": 10201,
      "军用": 10202,
      "军籍": 10203,
      "军粮": 10204,
      "军统": 10205,
      "军舰": 10206,
      "军营": 10207,
      "军衔": 10208,
      "军装": 10209,
      "军警": 10210,
      "军训": 10211,
      "军费": 10212,
      "军部": 10213,
      "军长": 10214,
      "军阀": 10215,
      "军队": 10216,
      "军需": 10217,
      "农业": 10218,
      "农事": 10219,
      "农会": 10220,
      "农具": 10221,
      "农历": 10222,
      "农商": 10223,
      "农地": 10224,
      "农场": 10225,
      "农垦": 10226,
      "农大": 10227,
      "农夫": 10228,
      "农委": 10229,
      "农学": 10230,
      "农家": 10231,
      "农工": 10232,
      "农庄": 10233,
      "农户": 10234,
      "农技": 10235,
      "农机": 10236,
      "农村": 10237,
      "农林": 10238,
      "农民": 10239,
      "农活": 10240,
      "农牧": 10241,
      "农用": 10242,
      "农田": 10243,
      "农科": 10244,
      "农耕": 10245,
      "农药": 10246,
      "农行": 10247,
      "农资": 10248,
      "冠以": 10249,
      "冠军": 10250,
      "冠名": 10251,
      "冠脉": 10252,
      "冤家": 10253,
      "冤枉": 10254,
      "冥想": 10255,
      "冥界": 10256,
      "冬天": 10257,
      "冬季": 10258,
      "冬日": 10259,
      "冬春": 10260,
      "冬瓜": 10261,
      "冬眠": 10262,
      "冬笋": 10263,
      "冬至": 10264,
      "冬菇": 10265,
      "冬雨": 10266,
      "冬青": 10267,
      "冰上": 10268,
      "冰冷": 10269,
      "冰冻": 10270,
      "冰凉": 10271,
      "冰块": 10272,
      "冰封": 10273,
      "冰山": 10274,
      "冰岛": 10275,
      "冰川": 10276,
      "冰心": 10277,
      "冰晶": 10278,
      "冰毒": 10279,
      "冰水": 10280,
      "冰河": 10281,
      "冰火": 10282,
      "冰点": 10283,
      "冰片": 10284,
      "冰球": 10285,
      "冰箱": 10286,
      "冰糖": 10287,
      "冰镇": 10288,
      "冰雪": 10289,
      "冰雹": 10290,
      "冰霜": 10291,
      "冲入": 10292,
      "冲出": 10293,
      "冲击": 10294,
      "冲刷": 10295,
      "冲刺": 10296,
      "冲剂": 10297,
      "冲动": 10298,
      "冲压": 10299,
      "冲向": 10300,
      "冲天": 10301,
      "冲床": 10302,
      "冲撞": 10303,
      "冲服": 10304,
      "冲泡": 10305,
      "冲洗": 10306,
      "冲浪": 10307,
      "冲淡": 10308,
      "冲着": 10309,
      "冲破": 10310,
      "冲突": 10311,
      "冲绳": 10312,
      "冲走": 10313,
      "冲锋": 10314,
      "决不": 10315,
      "决出": 10316,
      "决定": 10317,
      "决心": 10318,
      "决意": 10319,
      "决战": 10320,
      "决斗": 10321,
      "决断": 10322,
      "决策": 10323,
      "决算": 10324,
      "决绝": 10325,
      "决胜": 10326,
      "决裂": 10327,
      "决议": 10328,
      "决赛": 10329,
      "况且": 10330,
      "冶炼": 10331,
      "冶金": 10332,
      "冷冻": 10333,
      "冷凝": 10334,
      "冷却": 10335,
      "冷峻": 10336,
      "冷库": 10337,
      "冷战": 10338,
      "冷暖": 10339,
      "冷月": 10340,
      "冷气": 10341,
      "冷水": 10342,
      "冷汗": 10343,
      "冷淡": 10344,
      "冷清": 10345,
      "冷漠": 10346,
      "冷热": 10347,
      "冷眼": 10348,
      "冷笑": 10349,
      "冷艳": 10350,
      "冷落": 10351,
      "冷藏": 10352,
      "冷血": 10353,
      "冷轧": 10354,
      "冷酷": 10355,
      "冷门": 10356,
      "冷静": 10357,
      "冷面": 10358,
      "冷风": 10359,
      "冷饮": 10360,
      "冻伤": 10361,
      "冻死": 10362,
      "冻结": 10363,
      "净值": 10364,
      "净利": 10365,
      "净化": 10366,
      "净土": 10367,
      "净水": 10368,
      "净空": 10369,
      "净重": 10370,
      "净额": 10371,
      "凄凉": 10372,
      "凄惨": 10373,
      "凄美": 10374,
      "准予": 10375,
      "准入": 10376,
      "准则": 10377,
      "准备": 10378,
      "准时": 10379,
      "准确": 10380,
      "准许": 10381,
      "凉亭": 10382,
      "凉山": 10383,
      "凉州": 10384,
      "凉快": 10385,
      "凉拌": 10386,
      "凉水": 10387,
      "凉爽": 10388,
      "凉粉": 10389,
      "凉茶": 10390,
      "凉菜": 10391,
      "凉鞋": 10392,
      "凉风": 10393,
      "凋亡": 10394,
      "凋谢": 10395,
      "凋零": 10396,
      "凌乱": 10397,
      "凌云": 10398,
      "凌厉": 10399,
      "凌晨": 10400,
      "凌空": 10401,
      "凌辱": 10402,
      "减产": 10403,
      "减仓": 10404,
      "减低": 10405,
      "减值": 10406,
      "减免": 10407,
      "减刑": 10408,
      "减半": 10409,
      "减压": 10410,
      "减去": 10411,
      "减小": 10412,
      "减少": 10413,
      "减弱": 10414,
      "减慢": 10415,
      "减持": 10416,
      "减掉": 10417,
      "减排": 10418,
      "减法": 10419,
      "减灾": 10420,
      "减税": 10421,
      "减缓": 10422,
      "减肥": 10423,
      "减至": 10424,
      "减负": 10425,
      "减轻": 10426,
      "减退": 10427,
      "减速": 10428,
      "减重": 10429,
      "减量": 10430,
      "减震": 10431,
      "凑合": 10432,
      "凝固": 10433,
      "凝望": 10434,
      "凝神": 10435,
      "凝练": 10436,
      "凝结": 10437,
      "凝聚": 10438,
      "凝胶": 10439,
      "凝视": 10440,
      "凝重": 10441,
      "几万": 10442,
      "几下": 10443,
      "几个": 10444,
      "几乎": 10445,
      "几代": 10446,
      "几件": 10447,
      "几位": 10448,
      "几何": 10449,
      "几倍": 10450,
      "几分": 10451,
      "几十": 10452,
      "几千": 10453,
      "几口": 10454,
      "几句": 10455,
      "几只": 10456,
      "几名": 10457,
      "几周": 10458,
      "几回": 10459,
      "几场": 10460,
      "几块": 10461,
      "几声": 10462,
      "几处": 10463,
      "几多": 10464,
      "几天": 10465,
      "几套": 10466,
      "几家": 10467,
      "几岁": 10468,
      "几年": 10469,
      "几度": 10470,
      "几张": 10471,
      "几所": 10472,
      "几招": 10473,
      "几日": 10474,
      "几时": 10475,
      "几本": 10476,
      "几条": 10477,
      "几根": 10478,
      "几次": 10479,
      "几款": 10480,
      "几步": 10481,
      "几段": 10482,
      "几滴": 10483,
      "几点": 10484,
      "几片": 10485,
      "几率": 10486,
      "几番": 10487,
      "几百": 10488,
      "几种": 10489,
      "几秒": 10490,
      "几篇": 10491,
      "几米": 10492,
      "几类": 10493,
      "几经": 10494,
      "几许": 10495,
      "几近": 10496,
      "几遍": 10497,
      "几道": 10498,
      "几部": 10499,
      "几项": 10500,
      "几颗": 10501,
      "几首": 10502,
      "凡事": 10503,
      "凡人": 10504,
      "凡尘": 10505,
      "凡是": 10506,
      "凡间": 10507,
      "凤凰": 10508,
      "凤城": 10509,
      "凤尾": 10510,
      "凤山": 10511,
      "凤梨": 10512,
      "凤翔": 10513,
      "凤阳": 10514,
      "凭借": 10515,
      "凭着": 10516,
      "凭空": 10517,
      "凭证": 10518,
      "凯利": 10519,
      "凯尔": 10520,
      "凯恩": 10521,
      "凯撒": 10522,
      "凯文": 10523,
      "凯斯": 10524,
      "凯旋": 10525,
      "凯特": 10526,
      "凯蒂": 10527,
      "凯里": 10528,
      "凳子": 10529,
      "凶恶": 10530,
      "凶手": 10531,
      "凶残": 10532,
      "凶狠": 10533,
      "凶猛": 10534,
      "凶险": 10535,
      "凸出": 10536,
      "凸显": 10537,
      "凸现": 10538,
      "凸起": 10539,
      "凸轮": 10540,
      "凹凸": 10541,
      "凹槽": 10542,
      "凹陷": 10543,
      "出世": 10544,
      "出乎": 10545,
      "出书": 10546,
      "出事": 10547,
      "出于": 10548,
      "出云": 10549,
      "出产": 10550,
      "出价": 10551,
      "出任": 10552,
      "出众": 10553,
      "出使": 10554,
      "出借": 10555,
      "出入": 10556,
      "出兵": 10557,
      "出具": 10558,
      "出击": 10559,
      "出力": 10560,
      "出动": 10561,
      "出卖": 10562,
      "出厂": 10563,
      "出去": 10564,
      "出发": 10565,
      "出口": 10566,
      "出台": 10567,
      "出名": 10568,
      "出品": 10569,
      "出售": 10570,
      "出国": 10571,
      "出土": 10572,
      "出场": 10573,
      "出境": 10574,
      "出处": 10575,
      "出外": 10576,
      "出头": 10577,
      "出奇": 10578,
      "出嫁": 10579,
      "出家": 10580,
      "出局": 10581,
      "出山": 10582,
      "出差": 10583,
      "出师": 10584,
      "出席": 10585,
      "出库": 10586,
      "出庭": 10587,
      "出彩": 10588,
      "出征": 10589,
      "出息": 10590,
      "出战": 10591,
      "出手": 10592,
      "出新": 10593,
      "出来": 10594,
      "出栏": 10595,
      "出水": 10596,
      "出汗": 10597,
      "出没": 10598,
      "出海": 10599,
      "出游": 10600,
      "出演": 10601,
      "出炉": 10602,
      "出版": 10603,
      "出狱": 10604,
      "出现": 10605,
      "出生": 10606,
      "出示": 10607,
      "出租": 10608,
      "出纳": 10609,
      "出线": 10610,
      "出自": 10611,
      "出色": 10612,
      "出苗": 10613,
      "出血": 10614,
      "出行": 10615,
      "出警": 10616,
      "出让": 10617,
      "出访": 10618,
      "出货": 10619,
      "出资": 10620,
      "出走": 10621,
      "出路": 10622,
      "出身": 10623,
      "出轨": 10624,
      "出过": 10625,
      "出逃": 10626,
      "出钱": 10627,
      "出错": 10628,
      "出镜": 10629,
      "出门": 10630,
      "出院": 10631,
      "出面": 10632,
      "出题": 10633,
      "击中": 10634,
      "击伤": 10635,
      "击倒": 10636,
      "击剑": 10637,
      "击打": 10638,
      "击毁": 10639,
      "击毙": 10640,
      "击沉": 10641,
      "击溃": 10642,
      "击球": 10643,
      "击破": 10644,
      "击碎": 10645,
      "击穿": 10646,
      "击落": 10647,
      "击败": 10648,
      "击退": 10649,
      "击鼓": 10650,
      "函授": 10651,
      "函数": 10652,
      "刀具": 10653,
      "刀刃": 10654,
      "刀剑": 10655,
      "刀口": 10656,
      "刀子": 10657,
      "刀法": 10658,
      "刀片": 10659,
      "刀锋": 10660,
      "刁蛮": 10661,
      "刁难": 10662,
      "分为": 10663,
      "分享": 10664,
      "分会": 10665,
      "分体": 10666,
      "分值": 10667,
      "分光": 10668,
      "分册": 10669,
      "分出": 10670,
      "分列": 10671,
      "分别": 10672,
      "分割": 10673,
      "分包": 10674,
      "分化": 10675,
      "分区": 10676,
      "分卷": 10677,
      "分厂": 10678,
      "分叉": 10679,
      "分发": 10680,
      "分型": 10681,
      "分外": 10682,
      "分头": 10683,
      "分娩": 10684,
      "分子": 10685,
      "分家": 10686,
      "分寸": 10687,
      "分封": 10688,
      "分局": 10689,
      "分层": 10690,
      "分居": 10691,
      "分属": 10692,
      "分工": 10693,
      "分布": 10694,
      "分店": 10695,
      "分开": 10696,
      "分形": 10697,
      "分心": 10698,
      "分成": 10699,
      "分手": 10700,
      "分批": 10701,
      "分担": 10702,
      "分拆": 10703,
      "分拣": 10704,
      "分摊": 10705,
      "分支": 10706,
      "分散": 10707,
      "分数": 10708,
      "分明": 10709,
      "分期": 10710,
      "分机": 10711,
      "分权": 10712,
      "分析": 10713,
      "分枝": 10714,
      "分校": 10715,
      "分株": 10716,
      "分步": 10717,
      "分歧": 10718,
      "分段": 10719,
      "分母": 10720,
      "分水": 10721,
      "分治": 10722,
      "分泌": 10723,
      "分派": 10724,
      "分流": 10725,
      "分清": 10726,
      "分界": 10727,
      "分社": 10728,
      "分离": 10729,
      "分科": 10730,
      "分立": 10731,
      "分站": 10732,
      "分管": 10733,
      "分类": 10734,
      "分红": 10735,
      "分级": 10736,
      "分组": 10737,
      "分给": 10738,
      "分获": 10739,
      "分蘖": 10740,
      "分行": 10741,
      "分裂": 10742,
      "分装": 10743,
      "分解": 10744,
      "分设": 10745,
      "分贝": 10746,
      "分身": 10747,
      "分辨": 10748,
      "分选": 10749,
      "分部": 10750,
      "分配": 10751,
      "分量": 10752,
      "分钟": 10753,
      "分钱": 10754,
      "分销": 10755,
      "分队": 10756,
      "分院": 10757,
      "分隔": 10758,
      "分项": 10759,
      "分馆": 10760,
      "切丝": 10761,
      "切入": 10762,
      "切削": 10763,
      "切割": 10764,
      "切勿": 10765,
      "切口": 10766,
      "切合": 10767,
      "切块": 10768,
      "切实": 10769,
      "切尔": 10770,
      "切开": 10771,
      "切忌": 10772,
      "切换": 10773,
      "切断": 10774,
      "切片": 10775,
      "切碎": 10776,
      "切磋": 10777,
      "切花": 10778,
      "切莫": 10779,
      "切记": 10780,
      "切身": 10781,
      "切除": 10782,
      "切面": 10783,
      "刊出": 10784,
      "刊发": 10785,
      "刊物": 10786,
      "刊登": 10787,
      "刊行": 10788,
      "刊载": 10789,
      "刑事": 10790,
      "刑侦": 10791,
      "刑拘": 10792,
      "刑期": 10793,
      "刑法": 10794,
      "刑罚": 10795,
      "刑警": 10796,
      "刑部": 10797,
      "划伤": 10798,
      "划入": 10799,
      "划出": 10800,
      "划分": 10801,
      "划定": 10802,
      "划归": 10803,
      "划拨": 10804,
      "划痕": 10805,
      "划破": 10806,
      "划算": 10807,
      "划线": 10808,
      "划船": 10809,
      "划转": 10810,
      "划过": 10811,
      "列为": 10812,
      "列举": 10813,
      "列传": 10814,
      "列入": 10815,
      "列出": 10816,
      "列子": 10817,
      "列宁": 10818,
      "列岛": 10819,
      "列席": 10820,
      "列强": 10821,
      "列报": 10822,
      "列支": 10823,
      "列明": 10824,
      "列表": 10825,
      "列车": 10826,
      "刘备": 10827,
      "刘家": 10828,
      "刘海": 10829,
      "刘翔": 10830,
      "刘裕": 10831,
      "刘邦": 10832,
      "刚刚": 10833,
      "刚好": 10834,
      "刚度": 10835,
      "刚强": 10836,
      "刚性": 10837,
      "刚才": 10838,
      "刚果": 10839,
      "刚毅": 10840,
      "刚毛": 10841,
      "创下": 10842,
      "创世": 10843,
      "创业": 10844,
      "创举": 10845,
      "创优": 10846,
      "创伤": 10847,
      "创作": 10848,
      "创出": 10849,
      "创刊": 10850,
      "创制": 10851,
      "创办": 10852,
      "创口": 10853,
      "创始": 10854,
      "创建": 10855,
      "创意": 10856,
      "创投": 10857,
      "创收": 10858,
      "创新": 10859,
      "创立": 10860,
      "创维": 10861,
      "创设": 10862,
      "创造": 10863,
      "创面": 10864,
      "初一": 10865,
      "初三": 10866,
      "初中": 10867,
      "初二": 10868,
      "初五": 10869,
      "初值": 10870,
      "初八": 10871,
      "初创": 10872,
      "初夏": 10873,
      "初始": 10874,
      "初学": 10875,
      "初审": 10876,
      "初年": 10877,
      "初恋": 10878,
      "初探": 10879,
      "初时": 10880,
      "初春": 10881,
      "初期": 10882,
      "初次": 10883,
      "初步": 10884,
      "初版": 10885,
      "初生": 10886,
      "初秋": 10887,
      "初稿": 10888,
      "初等": 10889,
      "初级": 10890,
      "初衷": 10891,
      "初见": 10892,
      "初试": 10893,
      "初赛": 10894,
      "初选": 10895,
      "删减": 10896,
      "删去": 10897,
      "删掉": 10898,
      "删除": 10899,
      "判例": 10900,
      "判决": 10901,
      "判刑": 10902,
      "判别": 10903,
      "判处": 10904,
      "判官": 10905,
      "判定": 10906,
      "判断": 10907,
      "判罚": 10908,
      "利于": 10909,
      "利亚": 10910,
      "利兹": 10911,
      "利刃": 10912,
      "利剑": 10913,
      "利器": 10914,
      "利多": 10915,
      "利奥": 10916,
      "利好": 10917,
      "利害": 10918,
      "利尔": 10919,
      "利尿": 10920,
      "利差": 10921,
      "利弊": 10922,
      "利息": 10923,
      "利民": 10924,
      "利润": 10925,
      "利湿": 10926,
      "利率": 10927,
      "利用": 10928,
      "利益": 10929,
      "利税": 10930,
      "利空": 10931,
      "利落": 10932,
      "利马": 10933,
      "别人": 10934,
      "别克": 10935,
      "别具": 10936,
      "别号": 10937,
      "别名": 10938,
      "别国": 10939,
      "别墅": 10940,
      "别处": 10941,
      "别家": 10942,
      "别扭": 10943,
      "别提": 10944,
      "别样": 10945,
      "别的": 10946,
      "别离": 10947,
      "别称": 10948,
      "别致": 10949,
      "别说": 10950,
      "刮刀": 10951,
      "刮痧": 10952,
      "到任": 10953,
      "到位": 10954,
      "到场": 10955,
      "到处": 10956,
      "到头": 10957,
      "到底": 10958,
      "到户": 10959,
      "到手": 10960,
      "到期": 10961,
      "到来": 10962,
      "到校": 10963,
      "到访": 10964,
      "到货": 10965,
      "到达": 10966,
      "制作": 10967,
      "制做": 10968,
      "制冷": 10969,
      "制剂": 10970,
      "制动": 10971,
      "制取": 10972,
      "制品": 10973,
      "制售": 10974,
      "制图": 10975,
      "制备": 10976,
      "制定": 10977,
      "制导": 10978,
      "制度": 10979,
      "制式": 10980,
      "制成": 10981,
      "制服": 10982,
      "制止": 10983,
      "制法": 10984,
      "制热": 10985,
      "制片": 10986,
      "制版": 10987,
      "制种": 10988,
      "制糖": 10989,
      "制约": 10990,
      "制胜": 10991,
      "制药": 10992,
      "制衡": 10993,
      "制衣": 10994,
      "制表": 10995,
      "制裁": 10996,
      "制订": 10997,
      "制造": 10998,
      "制鞋": 10999,
      "刷刷": 11000,
      "刷卡": 11001,
      "刷子": 11002,
      "刷新": 11003,
      "刷洗": 11004,
      "刷牙": 11005,
      "券商": 11006,
      "刹车": 11007,
      "刹那": 11008,
      "刺伤": 11009,
      "刺刀": 11010,
      "刺史": 11011,
      "刺客": 11012,
      "刺杀": 11013,
      "刺激": 11014,
      "刺猬": 11015,
      "刺痛": 11016,
      "刺眼": 11017,
      "刺绣": 11018,
      "刺耳": 11019,
      "刺鼻": 11020,
      "刻划": 11021,
      "刻印": 11022,
      "刻字": 11023,
      "刻度": 11024,
      "刻录": 11025,
      "刻意": 11026,
      "刻有": 11027,
      "刻本": 11028,
      "刻板": 11029,
      "刻画": 11030,
      "刻石": 11031,
      "刻苦": 11032,
      "刻薄": 11033,
      "剁碎": 11034,
      "剂型": 11035,
      "剂量": 11036,
      "削减": 11037,
      "削弱": 11038,
      "削皮": 11039,
      "前世": 11040,
      "前人": 11041,
      "前任": 11042,
      "前倾": 11043,
      "前兆": 11044,
      "前列": 11045,
      "前卫": 11046,
      "前厅": 11047,
      "前去": 11048,
      "前台": 11049,
      "前后": 11050,
      "前场": 11051,
      "前夕": 11052,
      "前夜": 11053,
      "前天": 11054,
      "前夫": 11055,
      "前头": 11056,
      "前奏": 11057,
      "前妻": 11058,
      "前年": 11059,
      "前庭": 11060,
      "前往": 11061,
      "前排": 11062,
      "前提": 11063,
      "前方": 11064,
      "前日": 11065,
      "前景": 11066,
      "前朝": 11067,
      "前期": 11068,
      "前来": 11069,
      "前款": 11070,
      "前段": 11071,
      "前沿": 11072,
      "前生": 11073,
      "前瞻": 11074,
      "前秦": 11075,
      "前移": 11076,
      "前程": 11077,
      "前端": 11078,
      "前线": 11079,
      "前缀": 11080,
      "前缘": 11081,
      "前置": 11082,
      "前者": 11083,
      "前肢": 11084,
      "前胸": 11085,
      "前臂": 11086,
      "前茅": 11087,
      "前行": 11088,
      "前言": 11089,
      "前路": 11090,
      "前身": 11091,
      "前轮": 11092,
      "前辈": 11093,
      "前边": 11094,
      "前进": 11095,
      "前述": 11096,
      "前途": 11097,
      "前部": 11098,
      "前锋": 11099,
      "前门": 11100,
      "前面": 11101,
      "前额": 11102,
      "前驱": 11103,
      "剑圣": 11104,
      "剑士": 11105,
      "剑客": 11106,
      "剑术": 11107,
      "剑桥": 11108,
      "剑气": 11109,
      "剑法": 11110,
      "剑锋": 11111,
      "剔除": 11112,
      "剖开": 11113,
      "剖析": 11114,
      "剖面": 11115,
      "剥削": 11116,
      "剥去": 11117,
      "剥夺": 11118,
      "剥皮": 11119,
      "剥离": 11120,
      "剥落": 11121,
      "剧中": 11122,
      "剧作": 11123,
      "剧团": 11124,
      "剧场": 11125,
      "剧情": 11126,
      "剧本": 11127,
      "剧毒": 11128,
      "剧烈": 11129,
      "剧照": 11130,
      "剧痛": 11131,
      "剧目": 11132,
      "剧社": 11133,
      "剧种": 11134,
      "剧组": 11135,
      "剧院": 11136,
      "剩下": 11137,
      "剩余": 11138,
      "剪刀": 11139,
      "剪切": 11140,
      "剪影": 11141,
      "剪纸": 11142,
      "剪裁": 11143,
      "剪辑": 11144,
      "剪除": 11145,
      "副业": 11146,
      "副刊": 11147,
      "副官": 11148,
      "副将": 11149,
      "副总": 11150,
      "副手": 11151,
      "副本": 11152,
      "副职": 11153,
      "副词": 11154,
      "割据": 11155,
      "割肉": 11156,
      "割舍": 11157,
      "割裂": 11158,
      "割让": 11159,
      "剿匪": 11160,
      "力主": 11161,
      "力争": 11162,
      "力作": 11163,
      "力克": 11164,
      "力图": 11165,
      "力士": 11166,
      "力学": 11167,
      "力帆": 11168,
      "力度": 11169,
      "力推": 11170,
      "力气": 11171,
      "力求": 11172,
      "力矩": 11173,
      "力道": 11174,
      "力量": 11175,
      "劝告": 11176,
      "劝导": 11177,
      "劝说": 11178,
      "劝退": 11179,
      "劝阻": 11180,
      "办事": 11181,
      "办公": 11182,
      "办刊": 11183,
      "办到": 11184,
      "办发": 11185,
      "办好": 11186,
      "办学": 11187,
      "办完": 11188,
      "办成": 11189,
      "办案": 11190,
      "办法": 11191,
      "办理": 11192,
      "办税": 11193,
      "办结": 11194,
      "办证": 11195,
      "办起": 11196,
      "功业": 11197,
      "功利": 11198,
      "功力": 11199,
      "功劳": 11200,
      "功勋": 11201,
      "功名": 11202,
      "功夫": 11203,
      "功底": 11204,
      "功德": 11205,
      "功效": 11206,
      "功法": 11207,
      "功率": 11208,
      "功用": 11209,
      "功绩": 11210,
      "功耗": 11211,
      "功能": 11212,
      "功臣": 11213,
      "功课": 11214,
      "加上": 11215,
      "加之": 11216,
      "加以": 11217,
      "加价": 11218,
      "加倍": 11219,
      "加元": 11220,
      "加入": 11221,
[...]
